1111111110000000
0000000100011100
0000000001110100
1111111100001001
0000000001011010
1111111111111101
1111111101011001
1111111100000010
1111111101100111
1111111010110000
0000000010000010
1111111111001111
1111111110111101
1111111100111100
0000000001101111
1111111101101011
0000000000100110
1111111011100100
0000000001100001
0000000001010111
1111111101110001
0000000010111100
1111111010111110
0000000001010110
1111111101111000
1111111001010101
1111111000110101
0000000000101101
0000000000101100
1111111011001001
0000000010100101
1111111110011001
0000000101000110
1111111010000101
1111111011011011
0000000010001010
1111111111010111
0000000011000101
0000000011111101
0000000100111010
0000000000101110
1111111100111000
1111111101110011
0000000001010010
1111111011111011
1111111111111100
0000000000100011
0000000001101110
1111111011010111
0000000011100100
1111111111011000
1111111110100100
1111111111001001
0000000000100010
0000000011111001
0000000011000001
0000000010111101
0000000000101001
1111111110010001
1111111110010111
0000000000010010
0000000000001010
0000000000001101
0000000001000101
0000000011110001
1111111111011101
1111111011010111
0000000000001011
0000000001000110
0000000001010100
1111111111011110
1111111110101111
0000000010010001
1111111110100011
1111111011101100
0000000010001001
0000000010101111
1111111111101111
1111111110100011
0000000101010001
1111111010000100
0000000001100000
1111111111110010
1111111111110000
1111111111100001
0000000000010111
0000000011010001
0000000100111111
1111111011111001
0000000100101101
0000000001111000
0000000001010011
0000000010100111
0000000001010100
0000000001000011
1111111110110010
0000000000101101
1111111110100011
1111111111111101
1111111110110001
1111111110011110
1111111100001000
0000000000101110
0000000011000110
1111111110110110
1111111010110111
0000000011000001
1111111001100000
1111111111111001
1111111111000010
0000000000001010
0000000001010011
0000000000100111
1111111011100100
0000000011011110
0000000000010011
0000000000000000
0000000000000011
1111111000001110
1111111110000011
0000000010000110
0000000000010000
1111111101001101
1111111100010111
0000000110111001
0000000110000011
1111111110100001
0000000001110001
