1111111111011011
1111111111100110
0000000000000100
0000000010011101
0000000000111100
1111111111101001
1111111010101111
1111111110001011
1111111100111101
1111111111001111
1111111010001011
1111111111100110
0000000010111011
0000000101010001
1111111011011101
0000000000101100
1111110110010111
1111101111101011
0000000000111100
1111111111100010
1111111100010010
0000000000101110
1111111110001011
0000000001110000
1111111111101010
1111111101011000
1111111101101000
0000000000000111
0000000100101110
1111111111000110
1111111101011001
0000000010001001
0000000111010101
0000000001011101
0000000111001101
1111111000001011
0000000011110100
1111111101101011
1111111101101100
0000000100010011
0000000001100100
1111111101011100
1111111011111101
0000000100100011
0000000001010010
0000000000000000
0000000001101001
0000000100001000
0000000001110011
0000000101000001
0000000001101110
1111111011100001
1111111011100001
1111111111111111
0000000101110001
1111111101110010
0000000010101011
0000000011001111
0000000001010000
1111111111000001
0000000011010111
0000000000111001
0000000001011100
0000000010100000
1111111100101101
1111111101111010
0000000111101111
0000000010000010
1111111110001001
1111111100101100
1111111110011011
0000000110000011
0000000001001111
1111111110100111
0000000011100010
1111111110001110
1111111111011011
0000000010010101
1111111110111010
1111111001101111
0000000011010000
0000000001000000
1111111001111100
1111111111001000
1111111111100110
1111111111010000
1111111111011101
0000000010100110
1111111110110010
1111111110011001
0000000010011100
1111111000110111
1111111001010010
1111111101010101
0000000000001011
0000000110000000
1111111011100110
0000000000011100
1111111101100110
0000000000001100
1111111011101110
1111111101010011
0000000101011100
1111111110001110
1111111100101011
0000000000001001
1111111101000010
1111111110101101
0000000100000011
1111111110000110
1111111100111110
0000000010100101
1111111101101111
0000000101000010
0000000011111011
1111111010110000
1111111111011111
1111111011001101
1111111111011100
0000000001111001
0000000100100001
0000000000010110
1111111111100101
1111111101000100
1111110011111011
0000000001010100
1111111110010110
0000000100000100
