DEPTH = 8;
WIDTH = 256;
ADDRESS_RADIX = DEC;
DATA_RADIX = BIN;
CONTENT
BEGIN
0 : 0000000000101100111111101101110100000001010100010000000010111011111111111110011011111110100010111111111111001111111111110011110111111111100010111111111010101111111111111110100100000000001111000000000010011101000000000000010011111111111001101111111111011011;
1 : 0000000010001001111111110101100111111111110001100000000100101110000000000000011111111111011010001111111101011000111111111110101000000000011100001111111110001011000000000010111011111111000100101111111111100010000000000011110011111011111010111111110110010111;
2 : 0000000100001000000000000110100100000000000000000000000001010010000000010010001111111110111111011111111101011100000000000110010000000001000100111111111101101100111111110110101100000000111101001111111000001011000000011100110100000000010111010000000111010101;
3 : 0000000010100000000000000101110000000000001110010000000011010111111111111100000100000000010100000000000011001111000000001010101111111111011100100000000101110001111111111111111111111110111000011111111011100001000000000110111000000001010000010000000001110011;
4 : 1111111001101111111111111011101000000000100101011111111111011011111111111000111000000000111000101111111110100111000000000100111100000001100000111111111110011011111111110010110011111111100010010000000010000010000000011110111111111111011110101111111100101101;
5 : 0000000110000000000000000000101111111111010101011111111001010010111111100011011100000000100111001111111110011001111111111011001000000000101001101111111111011101111111111101000011111111111001101111111111001000111111100111110000000000010000000000000011010000;
6 : 0000000010100101111111110011111011111111100001100000000100000011111111111010110111111111010000100000000000001001111111110010101111111111100011100000000101011100111111110101001111111110111011100000000000001100111111110110011000000000000111001111111011100110;
7 : 0000000100000100111111111001011000000000010101001111110011111011111111110100010011111111111001010000000000010110000000010010000100000000011110011111111111011100111111101100110111111111110111111111111010110000000000001111101100000001010000101111111101101111;
END;
