DEPTH = 128;
WIDTH = 256;
ADDRESS_RADIX = DEC;
DATA_RADIX = BIN;
CONTENT
BEGIN
0 : 0000000000000000000000000000000000000000000000000000000000000000000000000000000000000000000000001111111001010110111111111010011000000010001011001111111011011111000000000001001100000001101010111111111011011110000000000010110100000001000111111111111011011111;
1 : 0000000000000000000000000000000000000000000000000000000000000000000000000000000000000000000000001111110100111000000000001001111111111111101100010000000111101111000000000001011000000000111001100000000010010010111111111010111000000000000101111111111111101000;
2 : 0000000000000000000000000000000000000000000000000000000000000000000000000000000000000000000000001111111111101010000000110101011111111110011110101111111110110010111110111100000000000000001000011111111110101010000000100011110000000000011100111111111110001100;
3 : 0000000000000000000000000000000000000000000000000000000000000000000000000000000000000000000000000000000001100100000000010100101111111111001010001111110111111101111111101111010111111110001000010000001110111110000000010101100111111110001001100000000111011011;
4 : 0000000000000000000000000000000000000000000000000000000000000000000000000000000000000000000000000000000100101101111111001010011011111111100000110000001010000100000000011010001011111101110111010000000110011001111111101101101111111111111101010000000000001100;
5 : 0000000000000000000000000000000000000000000000000000000000000000000000000000000000000000000000000000000111010111111111001001001011111110111100101111111101110110111111100111100100000001000110010000001100000011000000001000101000000001011001011111111010011010;
6 : 0000000000000000000000000000000000000000000000000000000000000000000000000000000000000000000000000000001110001001111110100011000100000000001010101111111111010001000000111110000111111100010101101111111000011001000000001110101011111111101111000000000001000101;
7 : 0000000000000000000000000000000000000000000000000000000000000000000000000000000000000000000000001111111010010110000000100100010100000000001010001111110100110110111111011001011100000001010001000000000011101000000000011111110011111111111001000000000000011100;
8 : 0000000000000000000000000000000000000000000000000000000000000000000000000000000000000000000000000000000011000000111111100010100100000010110000100000000100000110111111111000100000000000010110001111110111101010111111100110010000000000000110101111111111100111;
9 : 0000000000000000000000000000000000000000000000000000000000000000000000000000000000000000000000000000000101011110111111101001111100000001000110001111111111111000111111110001011100000000010001001111111110001100111111101111010111111110001100110000000111001111;
10 : 0000000000000000000000000000000000000000000000000000000000000000000000000000000000000000000000001111111100101110000000101110110100000000011110011111111010100111000000000101001111111101000110100000000111000101000000010101000011111110111000100000000100011111;
11 : 0000000000000000000000000000000000000000000000000000000000000000000000000000000000000000000000001111111000101001000000000001101100000001101111100000000011001100000000010000101111111100110100000000000000011100000000100000000000000000111110111111111100001000;
12 : 0000000000000000000000000000000000000000000000000000000000000000000000000000000000000000000000001111111101000000111111001110010100000000001100110000000011011101111111110111000000000001010011110000000010111010000000100111101100000000000010011111111111111000;
13 : 0000000000000000000000000000000000000000000000000000000000000000000000000000000000000000000000000000000011110000000000011011000111111101110101001111111001110110111111110010100000000000111111011111111110100111000000011110011111111111100101000000000001101011;
14 : 0000000000000000000000000000000000000000000000000000000000000000000000000000000000000000000000000000000101110000111111110101110000000001001110100000000011000011111111111101010111111101110110101111111111001100111111100000101111111101000111000000001011100101;
15 : 0000000000000000000000000000000000000000000000000000000000000000000000000000000000000000000000000000001000001110000000010010100111111110000101100000000001101001111111110001011111111101101110000000000101001000111111111110100111111111001010000000000011011000;
16 : 0000000000000000000000000000000000000000000000000000000000000000000000000000000000000000000000000000000001111101000000000001010000000000001011100000000011000101000000001101110000000000100100101111011000100111000000010110000111111111101101010000000001001010;
17 : 0000000000000000000000000000000000000000000000000000000000000000000000000000000000000000000000000000000110101110000000101110111000000001001000100000000010011000111101101101001111111111010111100000000101110011111111001110011000001010010101001111010110101100;
18 : 0000000000000000000000000000000000000000000000000000000000000000000000000000000000000000000000001111111011111011000000100011111000000000001101011111111100011110000000000010101000000000101111001111111101110110000000001000000000000000000101101111111111101100;
19 : 0000000000000000000000000000000000000000000000000000000000000000000000000000000000000000000000000000000110100100111111101011010000000000110011100000000001010001000000100001010111111111010110010000000000001010111110101110001011111100101111000000001101000011;
20 : 0000000000000000000000000000000000000000000000000000000000000000000000000000000000000000000000000000000011100001111110100000111100000001011110110000000111010101000000100101011111111110110100110000001000010010111111101100101100000001010101111111111010101001;
21 : 0000000000000000000000000000000000000000000000000000000000000000000000000000000000000000000000001111111110010001000000001111011100000001110010111111111000101100111111000000010100000010011110000000000001011011000000000000110100000000011101001111111110001100;
22 : 0000000000000000000000000000000000000000000000000000000000000000000000000000000000000000000000001111110001110100111111111001100100000001011100110000000100111110000000010010000111111111000100000000001000111110111111100100000100000000011110011111111110000110;
23 : 0000000000000000000000000000000000000000000000000000000000000000000000000000000000000000000000001111111111110111000000001011011111111111011100011111111111110000000000100110010111111111111111010000000010101001111111000111011011111111111011010000000000010101;
24 : 0000000000000000000000000000000000000000000000000000000000000000000000000000000000000000000000000000000110111110000000010011010000000000010000111111111011101100000000000001110011111110010000111111110100001001000000000011101111111111101111000000000001000011;
25 : 0000000000000000000000000000000000000000000000000000000000000000000000000000000000000000000000000000000010101111111111100001010100000001101001001111111011100100111111111101100111111110100010000000000111001110000000000110100111111110100010010000000101110110;
26 : 0000000000000000000000000000000000000000000000000000000000000000000000000000000000000000000000001111111011101110000000011110001111111111110100001111111111000110111111001001101100000010000111100000000110011010111111100111001111111111111111010000000000000011;
27 : 0000000000000000000000000000000000000000000000000000000000000000000000000000000000000000000000000000000001010000000000000100110000000000010100011111110000001000000000000001011000000001101110101111111100101101000000010010110011111111101001110000000001011010;
28 : 0000000000000000000000000000000000000000000000000000000000000000000000000000000000000000000000001111111100011000111111111111011100000000110011101111111101000011111111100110010111111111001000010000000110000100000000011010001011111110101000100000000101011111;
29 : 0000000000000000000000000000000000000000000000000000000000000000000000000000000000000000000000001111111111010001000000000001100111111110101010010000000010000111111111111000110100000000100000000000001001010111111111100101010100000011101001111111110001010111;
30 : 0000000000000000000000000000000000000000000000000000000000000000000000000000000000000000000000001111110101010001111111011110101100000010010100000000000010100010000000100011010011111111111111000000000010011000000000000110011100000001111111101111111000000011;
31 : 0000000000000000000000000000000000000000000000000000000000000000000000000000000000000000000000000000000000001111111111100011011111111111011000110000000101110101000000101101001011111100100111100000000001000100000000000001001011111111011100010000000010001111;
32 : 0000000000000000000000000000000000000000000000000000000000000000000000000000000000000000000000000000000000011011111111101110111011111111100101010000000010011000000000000001011111111111011111010000000001100000000000100011111011111110000101000000000111101011;
33 : 0000000000000000000000000000000000000000000000000000000000000000000000000000000000000000000000001111111110001110000000000110010111111101011101110000001010001101000000010011000000000000111111011111111001100000111111111111101000000001010110101111111010101001;
34 : 0000000000000000000000000000000000000000000000000000000000000000000000000000000000000000000000000000000010111101111111000110111111111111110001011111111011011011000000011101010111111110101010010000000100101111000000011100000011111110101001100000000101011011;
35 : 0000000000000000000000000000000000000000000000000000000000000000000000000000000000000000000000001111111000010110000000110011001011111111011001111111111110101111000000100001101111111111111101111111111100101100111111101011101011111000100001010000011101111010;
36 : 0000000000000000000000000000000000000000000000000000000000000000000000000000000000000000000000000000000101100100111111111001110100000001000110111111111110001011111111010110110111111101111100100000001000010111000000001100000111111111111111110000000000000011;
37 : 0000000000000000000000000000000000000000000000000000000000000000000000000000000000000000000000001111111110100011000000010111100100000011010010011111111110011100111111101111110100000000000011001111111110101100111111011110000111111110111000010000000100011111;
38 : 0000000000000000000000000000000000000000000000000000000000000000000000000000000000000000000000000000000011001011111111110100011100000000010111000000000100110110111111010001011100000000000010111111111110101100000000010000000000000010101001111111110101010111;
39 : 0000000000000000000000000000000000000000000000000000000000000000000000000000000000000000000000000000000000010111111111010000011000000010001111100000000010010110111111111101111111111101101111000000000010101111000000010000110000000000010010001111111110111001;
40 : 0000000000000000000000000000000000000000000000000000000000000000000000000000000000000000000000000000000011001100111111110001000111111111011000101111110011101111111111111100101000000001100000101111111111010100000000010111000000000000011001011111111110011010;
41 : 0000000000000000000000000000000000000000000000000000000000000000000000000000000000000000000000001111110100111000000000001001110000000000110111010000000111100001000000011100110011111110100001111111111111001110000000000100111100000001101010111111111001010110;
42 : 0000000000000000000000000000000000000000000000000000000000000000000000000000000000000000000000001111111010000001111111111110010100000000110101000000000101100001111111001110000100000001100001000000000100101100000000011101101100000000011001001111111110011010;
43 : 0000000000000000000000000000000000000000000000000000000000000000000000000000000000000000000000001111110110001111111111101011011100000001010101110000000110000110111111110000110011111111111010100000000111100001000000000011000000000001000011001111111011110101;
44 : 0000000000000000000000000000000000000000000000000000000000000000000000000000000000000000000000001111110010010110111111000010010000000001011001101111111110011000000000001010101100000000100100100000000111001101000000100101011011111111111000000000000000100010;
45 : 0000000000000000000000000000000000000000000000000000000000000000000000000000000000000000000000000000000010010111000000011100010111111101010100110000000010110011000000011011001111111110011000111111111101001101000000001010001100000000101001001111111101011100;
46 : 0000000000000000000000000000000000000000000000000000000000000000000000000000000000000000000000000000000100111100111111101111000111111110011101110000000010100001111111011101001000000001000100000000000111100011000000000001100111111111100111110000000001100001;
47 : 0000000000000000000000000000000000000000000000000000000000000000000000000000000000000000000000000000000001010100000000100100001011111110101011001111110010101001000000001111011111111111000000000000000010110110000000001011001100000000001011101111111111010010;
48 : 0000000000000000000000000000000000000000000000000000000000000000000000000000000000000000000000000000000010101101111111101000001100000000011010011111111000000001000000010100101111111111100111011111111111011100000000011000001011111101000110010000001011100110;
49 : 0000000000000000000000000000000000000000000000000000000000000000000000000000000000000000000000000000000001001100000000010100101000000001000110111111110101100111000000011001010111111101110110100000000000111010111111101101010011111110100111100000000101100000;
50 : 0000000000000000000000000000000000000000000000000000000000000000000000000000000000000000000000001111111010011010000000100110000111111111011100010000000010010001000000001000010011111111101010011111101111010100000000100011010100000001000101111111111011100111;
51 : 0000000000000000000000000000000000000000000000000000000000000000000000000000000000000000000000000000000111000011000000011001010100000001001100011111110111011011000000000010011111111111011011001111111111101010111111101000110011111110110000100000000100111110;
52 : 0000000000000000000000000000000000000000000000000000000000000000000000000000000000000000000000000000001000110010000000010011000111111111011001001111111101010110000000010110111011111011111000010000000111100000111111011111001011111111101101000000000001001100;
53 : 0000000000000000000000000000000000000000000000000000000000000000000000000000000000000000000000001111110110010000000000100100101111111111011001010000000011011001000000000000101100000001101010111111111110000110000000001001110111111111000011100000000011110010;
54 : 0000000000000000000000000000000000000000000000000000000000000000000000000000000000000000000000000000000100010100000000010010001000000000001101111111101101101000000000000011110111111111010101110000000010000010000000010001101111111111100101110000000001101001;
55 : 0000000000000000000000000000000000000000000000000000000000000000000000000000000000000000000000001111110110011010000000011110111011111110110111111111111101101000000000000001011000000001111101110000000011111010000000000110011000000001100111011111111001100100;
56 : 0000000000000000000000000000000000000000000000000000000000000000000000000000000000000000000000000000000000111111000000001111110111111101011001100000000000001011000000011100111011111110101111001111111011111101000000010001100111111111100110010000000001100111;
57 : 0000000000000000000000000000000000000000000000000000000000000000000000000000000000000000000000000000000101001000111111111111111111111111001111011111101111001101111111111111111111111111101001010000001011011100000000010100000111111110000000000000000111111111;
58 : 0000000000000000000000000000000000000000000000000000000000000000000000000000000000000000000000000000001000011011000000001000001011111111111010111111111000100111111111110111010011111111111111101111110110111000000000010101010100000000101111101111111101000010;
59 : 0000000000000000000000000000000000000000000000000000000000000000000000000000000000000000000000001111111010001001111111111101000100000001011000010000000011100001111111111111100100000000010101111111111011111011000000010010000100000000001101001111111111001100;
60 : 0000000000000000000000000000000000000000000000000000000000000000000000000000000000000000000000001111111100011101111111010010000000000001111110110000000110010111000000000000000100000001000000111111111100000100000000001001100111111111010010100000000010110111;
61 : 0000000000000000000000000000000000000000000000000000000000000000000000000000000000000000000000000000000100111111000000010011011111111111011000100000000111111010111111111000110011111100101010100000000101010000111111110110000111111111111001010000000000011011;
62 : 0000000000000000000000000000000000000000000000000000000000000000000000000000000000000000000000000000000010101010111111011010000111111110100111101111111010110111000000010000111111111111100110100000000111100001000000010101101000000000100100011111111101110000;
63 : 0000000000000000000000000000000000000000000000000000000000000000000000000000000000000000000000001111110100011001000000010011111011111110011111000000000101101000000000010011000000000001000110010000000010010111000000000100010000000001101110011111111001000111;
64 : 0000000000000000000000000000000000000000000000000000000000000000000000000000000000000000000000001111111011101100111111111100111111111110110000111111111011101010111111011100011000000101011111110000000001111000000000001000110011111101000000010000001100000001;
65 : 0000000000000000000000000000000000000000000000000000000000000000000000000000000000000000000000001111111100010100000000100000101100000000001001110000001010101110000000000001110111111110000000011111111111101110111111101011000011111110001110010000000111001000;
66 : 0000000000000000000000000000000000000000000000000000000000000000000000000000000000000000000000000000000100010001111111010110011111111111101100001111111101010100000000010011001111111110100000010000000101101011000000000100111011111110011111100000000110000001;
67 : 0000000000000000000000000000000000000000000000000000000000000000000000000000000000000000000000001111111011110110000000001000000100000000001110011111111110011000000000011110110000000001000001100000000000110010111111110000110011111011010000010000010010111111;
68 : 0000000000000000000000000000000000000000000000000000000000000000000000000000000000000000000000001111111100110000111111100011110000000001100011100000000111011010000000000111101111111111001101000000000000111000000000000100011000000000111101011111111100001100;
69 : 0000000000000000000000000000000000000000000000000000000000000000000000000000000000000000000000000000000101111010000000000010010111111101111111010000000011111000000000011101001100000000010100011111110101001010000000001000100011111111000010110000000011110110;
70 : 0000000000000000000000000000000000000000000000000000000000000000000000000000000000000000000000000000000000001111000000000100001011111111001010101111111100100111000000010110000000000001101100110000000000001010111111101001010011111011010001010000010010111100;
71 : 0000000000000000000000000000000000000000000000000000000000000000000000000000000000000000000000000000000000111010000000001000000100000000100100001111111011011011000000011010011111111101001101000000000101000111000000001001001111111111111000100000000000011100;
72 : 0000000000000000000000000000000000000000000000000000000000000000000000000000000000000000000000001111111010111110111111111011110011111110011100001111111110110101111111111001100100000010110000111111111110111001000000010111100000000000100010001111111101111000;
73 : 0000000000000000000000000000000000000000000000000000000000000000000000000000000000000000000000001111111100011011000000011101101111111101001101000000000010001001000000010000001000000000110011000000000010011011000000000111111000000000100011111111111101110010;
74 : 0000000000000000000000000000000000000000000000000000000000000000000000000000000000000000000000000000000001100100111111001110111100000000010110110000000101001110000000101111011111111110010011010000000001101000111111011000010011111100000010100000001111110111;
75 : 0000000000000000000000000000000000000000000000000000000000000000000000000000000000000000000000000000000001100101111111101101001100000000001000111111111111010100111111101111100111111111101111100000000011100101000000110000001000000010101011101111110101010010;
76 : 0000000000000000000000000000000000000000000000000000000000000000000000000000000000000000000000001111111110011101000000011010101100000000110011100000001001001100000000000110000011111100000010110000000011010110111111101000100100000001001101101111111011001001;
77 : 0000000000000000000000000000000000000000000000000000000000000000000000000000000000000000000000000000000011111001000000000001001011111110111011110000000100110011111111011010100011111111001010100000000110010111111111111011001111111111110110100000000000100110;
78 : 0000000000000000000000000000000000000000000000000000000000000000000000000000000000000000000000001111111101110011000000010110111000000000111101110000000000101101000000000110001100000000011101110000000011011000111111001001010111111110000010010000000111110111;
79 : 0000000000000000000000000000000000000000000000000000000000000000000000000000000000000000000000000000000010010001000000100000110100000000010110010000000010111000111111001001011000000001100011101111111000000011000000001000001100000011001010101111110011010100;
80 : 0000000000000000000000000000000000000000000000000000000000000000000000000000000000000000000000001111111010001100111111010110101000000000010010110000000101101101111111101011101000000001000111100000001000110110111111111100001100000000100010011111111101111000;
81 : 0000000000000000000000000000000000000000000000000000000000000000000000000000000000000000000000001111110111101010111111101010100100000000101011000000000010000110000000011100100100000001011001101111111101101001000000000101110011111111001100000000000011001110;
82 : 0000000000000000000000000000000000000000000000000000000000000000000000000000000000000000000000000000000100011100111111100001110000000000110001010000000011111100000000100000000111111101001011101111111110111000111111000011010100000011100001111111110001110111;
83 : 0000000000000000000000000000000000000000000000000000000000000000000000000000000000000000000000000000000000000011000000001000001000000010111011101111110101111100111111111001000111111110101100111111110111101100000000100011001100000000000010001111111111110110;
84 : 0000000000000000000000000000000000000000000000000000000000000000000000000000000000000000000000001111111100000101111111101000001000000011111101010000000000111110111111110100111100000000010100101111111010101011000000000010000011111111100000100000000001111110;
85 : 0000000000000000000000000000000000000000000000000000000000000000000000000000000000000000000000000000000001011101000000001010001011111110111101101111110010010101000000010100010000000000110111000000000000001111000000010011101111111111000101110000000011101010;
86 : 0000000000000000000000000000000000000000000000000000000000000000000000000000000000000000000000001111111111011100111111110101001000000010101011110000000011100101111111000100101000000010000101001111111110111000000000100100101011111111101000000000000001011101;
87 : 0000000000000000000000000000000000000000000000000000000000000000000000000000000000000000000000000000001000101101000000011100000111111101111000101111110000000001000000000001010011111111011001100000000010011000000000111100000011111110111000110000000100011101;
88 : 0000000000000000000000000000000000000000000000000000000000000000000000000000000000000000000000000000001010101001111111101011101011111111001111001111110110001110000000010101100111111110010011001111111111000001000000011101000000000001101101011111111001001011;
89 : 0000000000000000000000000000000000000000000000000000000000000000000000000000000000000000000000001111110101111000000000010001111000000000001101001111111111110110000000010000001000000001000001110000000001111001111111101110010000000000100011101111111101110010;
90 : 0000000000000000000000000000000000000000000000000000000000000000000000000000000000000000000000000000000010100110111111010000110011111111011100111111111101100011000000011011110000000000111010000000000001100101000000010011001000000000010110111111111110100101;
91 : 0000000000000000000000000000000000000000000000000000000000000000000000000000000000000000000000001111111111100101000000001100111000000000011111100000000011010011111111111101100000000000101010001111101100100001000000001000011011111111101111010000000001000010;
92 : 0000000000000000000000000000000000000000000000000000000000000000000000000000000000000000000000000000000011100101000000000110101011111111101110111111111111101100000000000100110100000001001010011111101100001101000000001110100100000000111010111111111100010110;
93 : 0000000000000000000000000000000000000000000000000000000000000000000000000000000000000000000000000000000010110110111111110110000000000001101111000000000010011000111111100000111100000000011101011111111110101111111111100000000100000010010010111111110110110100;
94 : 0000000000000000000000000000000000000000000000000000000000000000000000000000000000000000000000001111111111111011111111111000001100000001011111000000000000010101111111011110100000000001011101101111111001010101000000010011101111111110010000110000000110111110;
95 : 0000000000000000000000000000000000000000000000000000000000000000000000000000000000000000000000000000000101000011111111110110110011111111101011001111110010101010000000011000111111111111010011011111111110010000000000100000101111111101010101110000001010101010;
96 : 0000000000000000000000000000000000000000000000000000000000000000000000000000000000000000000000000000000001100010000000011011101000000011011111001111110000101101000000010000101011111111010000101111111110011110111111111100001100000000111100101111111100010000;
97 : 0000000000000000000000000000000000000000000000000000000000000000000000000000000000000000000000000000000010001110111111110001111011111110110010100000000001110101000000010110100100000000101101000000000000010010111111110010011000000001000101001111111011101101;
98 : 0000000000000000000000000000000000000000000000000000000000000000000000000000000000000000000000000000000000000010000000001000111000000001111011011111110111110000000000000000000111111111010101010000000001100100111111110011101100000010000011101111110111110001;
99 : 0000000000000000000000000000000000000000000000000000000000000000000000000000000000000000000000000000000011111000111111011011011011111101000100110000000011010110000000100100110000000001001011110000000011100010111111101110110111111111011110100000000010001000;
100 : 0000000000000000000000000000000000000000000000000000000000000000000000000000000000000000000000000000000010010110000001000011001011111111101101100000000110001000111111110000101111111111011000011111111011000010111111001100110100000010001111111111110111000100;
101 : 0000000000000000000000000000000000000000000000000000000000000000000000000000000000000000000000001111110001001010000000011110110000000000000101100000001001001010000000101010101011111110010001001111111011010010111111111101010100000001000011011111111011110001;
102 : 0000000000000000000000000000000000000000000000000000000000000000000000000000000000000000000000001111110011111110000000000000011111111111101110010000000011110010000000010011000000000000111111110000000010000101000000000000100000000000110111111111111100100010;
103 : 0000000000000000000000000000000000000000000000000000000000000000000000000000000000000000000000001111111001011000000000100101011000000001110001001111111101010010000000001000010011111110110110100000000100110001111111100101001100000001000001111111111011111001;
104 : 0000000000000000000000000000000000000000000000000000000000000000000000000000000000000000000000001111111011111100000000101001000100000001110100101111110111010100111111110000110100000001001010011111111111100101111111110010000111111111111100000000000000010001;
105 : 0000000000000000000000000000000000000000000000000000000000000000000000000000000000000000000000000000000000011000000000000010101111111110101100100000000100000101111111100011111000000001101111100000000010110001111111111110000000000000010001101111111110111011;
106 : 0000000000000000000000000000000000000000000000000000000000000000000000000000000000000000000000000000000111001000111111000110110011111110101011000000000001110010111111110011100000000010000111100000000100111010111111101011101011111110111001110000000100011001;
107 : 0000000000000000000000000000000000000000000000000000000000000000000000000000000000000000000000001111111101010010111111100001101000000000110101000000001001010000000000000001010111111110100101101111111101011110000000001101100100000001101100001111111001010000;
108 : 0000000000000000000000000000000000000000000000000000000000000000000000000000000000000000000000001111111011111000111111111010100011111111010110110000000101111000111111010110110100000001001111010000000100011011000000001110010111111110011010110000000110010011;
109 : 0000000000000000000000000000000000000000000000000000000000000000000000000000000000000000000000001111110100001100000000010110101000000001100000100000000010111000111111111101100100000001100001011111111111000111111111101001011011111111100101000000000001101110;
110 : 0000000000000000000000000000000000000000000000000000000000000000000000000000000000000000000000000000000110001100111111111111010000000010110000101111110111000110111111010000110000000001011100001111111110011000111111011010010100000010001101011111110111001010;
111 : 0000000000000000000000000000000000000000000000000000000000000000000000000000000000000000000000000000000001001001000000010011101100000000000000011111111111000101111111011100001111111111111001110000000101111011111111111111101111111111111010000000000000011000;
112 : 0000000000000000000000000000000000000000000000000000000000000000000000000000000000000000000000001111111000011011000000001001100100000000111111100000000011010100111111101000010000000011001000110000000111001001111111001110101111111111110110010000000000100111;
113 : 0000000000000000000000000000000000000000000000000000000000000000000000000000000000000000000000001111111110101111111111101010111100000001011101100000000000001010000000010010011111111101100110010000000111000000000000000110001000000000010011011111111110110101;
114 : 0000000000000000000000000000000000000000000000000000000000000000000000000000000000000000000000000000000010100111111111101100010011111111001001110000000001011110000000001001000011111110100010100000000110010100000000000010101100000000011001011111111110011100;
115 : 0000000000000000000000000000000000000000000000000000000000000000000000000000000000000000000000000000000001011010000000010110001111111110000111010000001011101000111111110111110000000000100000001111111001110101111111110101010111111111110101000000000000101011;
116 : 0000000000000000000000000000000000000000000000000000000000000000000000000000000000000000000000001111111000000001111111111011100111111111110011000000001000100110000000001001000000000000100101000000000001001001111111111110001100000001100001011111111001111110;
117 : 0000000000000000000000000000000000000000000000000000000000000000000000000000000000000000000000000000000100001001111111011001000100000000100101100000000010111100000000001010111011111111111001000000000111100100111111100001111100000000011111011111111110000011;
118 : 0000000000000000000000000000000000000000000000000000000000000000000000000000000000000000000000000000000011010011111111110101110111111111100110101111111100101110111111101010100100000001011010100000001000110011111111100001010000000000101010111111111101010100;
119 : 0000000000000000000000000000000000000000000000000000000000000000000000000000000000000000000000001111111101010001000000011111101000000000000001111111111111010000111111100001101100000011010011100000000100000000111111010011000011111111001011100000000011010011;
120 : 0000000000000000000000000000000000000000000000000000000000000000000000000000000000000000000000000000000010101111000000011110110111111111111111011111111001010100111111010100011111111110101000010000000011010000000000010001101111111110111100010000000100010001;
121 : 0000000000000000000000000000000000000000000000000000000000000000000000000000000000000000000000001111110111001000111111111101000100000011010100110000000010010111111111110100110011111110110101001111111001001010000000011010111000000000110000111111111100111011;
122 : 0000000000000000000000000000000000000000000000000000000000000000000000000000000000000000000000000000000101000001111111111111001000000000011010001111111011000101111111001111110100000001101111010000000011001100111111100011100011111110110011010000000100110100;
123 : 0000000000000000000000000000000000000000000000000000000000000000000000000000000000000000000000000000001101001001111111110001110111111111001101011111111101010011000000001101011111111110101011101111111110000100111111110111000111111111100100010000000001110000;
124 : 0000000000000000000000000000000000000000000000000000000000000000000000000000000000000000000000000000001000001011000000010001101100000001001011010000000100011110111110000110000100000000000110100000000100011100111111100110001000000111100100011111100001110001;
125 : 0000000000000000000000000000000000000000000000000000000000000000000000000000000000000000000000001111111010110001000000001111100111111111000001111111111100011111111111101000111100000000010101100000000100001101000000110111111000000000011110111111111110000101;
126 : 0000000000000000000000000000000000000000000000000000000000000000000000000000000000000000000000001111110011001100000000010111100000000001000101000000000010010011000000001111011100000001011101000000000001000000111111101000011011111110100001000000000101111101;
127 : 0000000000000000000000000000000000000000000000000000000000000000000000000000000000000000000000001111111110001100111111100110001100000000111100000000001000000000111111010000100100000010000110111111111101011001000000001010001000000001100001011111111001111111;
END;
