DEPTH = 8;
WIDTH = 256;
ADDRESS_RADIX = DEC;
DATA_RADIX = BIN;
CONTENT
BEGIN
0 : 1111111101101011000000000110111111111111001111001111111110111101111111111100111100000000100000101111111010110000111111110110011111111111000000101111111101011001111111111111110100000000010110101111111100001001000000000111010000000001000111001111111110000000;
1 : 1111111110011001000000001010010111111110110010010000000000101100000000000010110111111110001101011111111001010101111111110111100000000000010101101111111010111110000000001011110011111111011100010000000001010111000000000110000111111110111001000000000000100110;
2 : 0000000001101110000000000010001111111111111111001111111011111011000000000101001011111111011100111111111100111000000000000010111000000001001110100000000011111101000000001100010111111111110101110000000010001010111111101101101111111110100001010000000101000110;
3 : 0000000001000101000000000000110100000000000010100000000000010010111111111001011111111111100100010000000000101001000000001011110100000000110000010000000011111001000000000010001011111111110010011111111110100100111111111101100000000000111001001111111011010111;
4 : 0000000101010001111111111010001111111111111011110000000010101111000000001000100111111110111011001111111110100011000000001001000111111111101011111111111111011110000000000101010000000000010001100000000000001011111111101101011111111111110111010000000011110001;
5 : 1111111110110010000000000100001100000000010101000000000010100111000000000101001100000000011110000000000100101101111111101111100100000001001111110000000011010001000000000001011111111111111000011111111111110000111111111111001000000000011000001111111010000100;
6 : 0000000001010011000000000000101011111111110000101111111111111001111111100110000000000000110000011111111010110111111111111011011000000000110001100000000000101110111111110000100011111111100111101111111110110001111111111111110111111111101000110000000000101101;
7 : 0000000001110001111111111010000100000001100000110000000110111001111111110001011111111111010011010000000000010000000000001000011011111111100000111111111000001110000000000000001100000000000000000000000000010011000000001101111011111110111001000000000000100111;
END;
