DEPTH = 1024;
WIDTH = 256;
ADDRESS_RADIX = DEC;
DATA_RADIX = BIN;
CONTENT
BEGIN
0 : 0000000001110001111111111101111000000000001011110000000000111001111111101100000000000001010011101111111110011100000000001111111111111110000011110000000010100110111111110001100111111111010100100000000000011101000000011001101000000000010000111111111101101111;
1 : 0000000100100100000000000111001011111111101111110000000001011111000000010000011111111111000011000000000001010101111111110000001100000000111101011111111010100100111111101111101111111111000000100000000000110101000000001111000111111111100010001111111000110000;
2 : 0000000101001000111111100001110011111111001000011111111100010110111111011011100100000000110001100000000110111101000000001011101111111110001000101111111101011001000000000100010000000000100101011111111110101101111111101101110000000000001010011111110110000100;
3 : 0000000111110110111111100010100111111110001110100000000000000111111111100100110011111110010101101111111011100111000000000010001111111111110001001111111110011010111111011001000011111110111010001111111101001001000000001100110000000000111110001111111111100001;
4 : 1111111110110001111111100110110011111111001110110000000000000110000000000100010000000001010011011111111111011011000000000000010100000001010000101111111001110111111111101111101100000001100111101111111000000100000000000100100111111101010010111111111100011011;
5 : 1111111110100001000000001100110011111111100001000000000000000010000000000000001011111111100001010000000000001110111111110001111000000000001001111111111111111111000000000000010111111111101010110000000010011111111111111100100111111111011011100000000001010100;
6 : 1111111101011110000000001001001011111110000010000000001010011010000000000101100100000000101100010000000100001111111111110000110000000000011101011111111110100010000000001000110111111111110111010000000010011001111111100110011111111111110000001111111001110010;
7 : 1111110111110001000000000011011100000000001100000000000100010000111111101110100100000001110000010000000100000101000000010100000111111110101011110000000010001001111111111100110011111111101011101111111001010101111111111100110011111111101100001111111001101000;
8 : 0000000000001001000000000101011000000000111011101111111011100100111111111111000111111111000000101111111111000101111111110000111011111111010100101111111111000101000000000010100000000000111001010000000111011110000000011001100000000000100011010000000011010000;
9 : 0000000000000001111111100101100111111111111001011111111110100011000000001011101011111111011111110000000000000111000000001001010111111111011011011111111011011000111111110101101100000001011100111111111011010111111111101001100011111111100111111111111110111010;
10 : 1111111101001101111111111010011000000000010010011111111110001001111111011100001100000000101010000000000100010011111111110000000011111101111001000000000001011001111111011010101111111110100110110000000001101100111111011001101100000001100101001111111111011010;
11 : 0000000101110111111111101101011000000000010110000000000010100010000000001000101111111111010011111111111000010110111111110111000000000001100100001111110111001001111111110010101000000010010000010000000100010111000000000010001011111111110111010000000001011110;
12 : 1111111011000001111111100111101111111111101010111111111111110100111111101000101011111111001110000000000000011101111111110000010100000000100100111111111000110110111111110010000011111111011010001111111100010001111111100111011111111111101100111111111011000011;
13 : 1111111110111000000000010010110111111110101011100000000010100010111111111101001011111110000010110000000000001001111111011110011111111111011101101111111100111010111111101001100000000000010100111111111111000010000000000111000000000000011101001111110111001010;
14 : 1111111011011100111111101101100111111111010000110000000000001110111111101100101011111101001100011111111111110001111111101100101000000000010111011111110111100011000000001111110000000001111011001111110110100100111111110101111111111110000111111111110111011010;
15 : 0000001000101100111111011011101111111101110010000000000000111000111111101001111111111110101110001111111010101000111111101100110011111110010100101111111001001110111111101001101100000001010100111111111001011011000000000011100111111110001111110000000100100100;
16 : 0000001000101101111111111000010000000000001100101111111111010001000000000000011000000001001000100000000101101110111111011110010100000001111111010000000110100000000000000111000011111111111000101111110111011000111111110011011100000000010000010000000101100110;
17 : 1111111110000100111111110010001011111110011000101111111110011000111111101111101111111111010111010000000000010101000000000001111011111111110000001111111011001110111111110100100000000000101000010000000100000110000000011001000011111111101101000000000100101011;
18 : 0000000101111100111111110101010111111111010101010000000100000111000000010101011011111111000100100000000100111000000000001000001011111110011011101111111101100011111111010000101111111111111100010000000100110001111111111110001011111111100100100000000001110100;
19 : 1111111110001111000000001100110011111110111100111111111101110001111111101110000000000000010011111111110111101001000000010101000100000000101000110000000000111011111111011101100000000000010111001111110111111110111111100100100100000010001001010000000010101000;
20 : 1111111100111001000000000010000011111111101001101111110101110000000000000010101000000000011111111111111011000010111111011001101100000001101000011111111100011101111111110001011000000001011101100000000001111001111111011100110011111110010000000000000111110001;
21 : 1111111111001011000000000110001111111110000011111111111110010110111111110011001100000001110000101111111101001101000000010011001000000000100001101111111111011101111111101111011011111111001011101111111000001110000000001001011111111110101110001111111001110000;
22 : 1111111011111011111111010111001111111111010010010000000100101111111110110111100111111110110110011111111111000000111111101110011011111110000001001111110100010010111111101111010100000011001100001111111011000011111111110001001011111111000000101111110101011001;
23 : 0000000011101001111111111101010111111111010101100000000001100000000000011011010000000001101100011111111110011101111111001111001000000000011011111111110110110011000000001101100100000000011010100000000100111101111111110101110000000001000000111111111111010110;
24 : 0000000101000111000000011010110100000000000001011111110110110111000000000111110111111111001000001111111001000110111111110111001111111100101101010000000101101010111111011101111111111111001010101111110011111110000000000111000111111111011100000000000000000101;
25 : 1111111101111111000000000111000000000000010001011111111101001011111111101110011111111111111110100000000001100000111111111111101111111110111011001111111010001000000000000000001111111111010110011111110111001100111111011001011100000001001001001111111011101100;
26 : 1111111101011011111111111000111000000000110000001111111111111000000000000000111111111110011101000000000100110000000000000011100011111110111100100000000000100100000000001010101000000000011101101111111101000100000000001011010011111111001110101111111011000100;
27 : 0000000100000010000000000101111000000000101001100000000010110010000000000101110011111111101001011111111010101100000000000110001000000000101101000000000101110000000000000110111111111110100111001111111011111110000000000100001000000000010000010000000000010001;
28 : 1111111001001000000000000010100000000001010110001111111010110001111111111110101100000000001011111111111110010001000000000010110100000001011011101111111110100001000000000101000000000001010000011111111011011001111111100110010111111111011110001111111100110010;
29 : 1111111001101111000000010010100000000001010001010000000000111101111111111111110111111101110001101111111101010010000000010110001111111101101000111111111111000111000000000111101011111111000101010000000001011101000000000101110111111111000110111111111101101111;
30 : 1111110110010010111111111001111100000000100000000000000000111010000000001011111111111110010101011111111110100100111111111000101100000001001111100000000000001011000000001100000100000001011111111111111100110011111111111110101111111111111001001111111101100000;
31 : 1111110101111011000000000100111000000000001100011111111010000101111111111001001100000000110011100000000111001000111111101010110011111111100000100000000100011010000000000101001100000000001111001111111111011011111111111111001100000000000100100000000100011101;
32 : 1111111100011101111111101111101100000000110001111111111111001011111111111001100111111110001011100000000000110010111111100011101011111111111000011111111111101011111111111101011100000000110011110000000000111110111111111001111000000001001010111111111111100000;
33 : 1111111000001110000000000111100111111111111011001111111011110001000000000000010111111111111101000000000000100111111111001101100011111110011001011111111100010010111111010000001011111111100010111111111110100100000000000000000100000000100010000000000000001101;
34 : 1111111111011100111111110000100011111111010011011111111100011000000000011000101111111111011101001111110110000000111111110000010011111111010011001111111101010110111111110110000100000000100111011111111111111111000000000011010011111110101101110000000000110001;
35 : 0000000000000011111111010110000111111111111010000000000111001000000000001000010100000001000011011111111110111100111111110011101011111111100001110000000100111011000000000100010011111111110110000000000011110111111111110000011100000001010111011111110111111000;
36 : 1111111001100111111111111111100011111101101011110000000011100010111111110000100100000001001101111111111100111111000000010000111011111111100010100000000101000011000000001110011100000000111110111111111110000100111111011000101111111110010001001111111010011010;
37 : 0000000011011100111111110001001011111111110001000000000010100111000000001110010011111111000001111111111111111010111111110110001111111111100111101111111000101101000000010101010100000001000110111111111101111011111111100100101011111111001110001111111101110101;
38 : 1111111001100000111111111011110011111110111110001111110111100101111111011111011000000011100111110000001000110000111111011010110000000000100110110000010000100000000000011100110111111100010100001111111110001110111111111011110100000000010101111111110111010011;
39 : 1111111111011010111111101011001100000001011001000000000000111111111111111100010111111111000000011111111111000101111111110101101111111110110000100000000010110010000000011110100100000000011101001111111000001000111110110101010111111111011110000000000110010111;
40 : 0000000000111000111111010010010100000000100011111111111110111100111111100000010100000000001010000000000000101010111111101101001111111111100010011111110100011101111111111011101011111110011011111111111011110001111111111010010000000001110110000000000000110111;
41 : 1111111100110101111111111001110011111111010101011111111011010010000000001011011011111110100001101111111010001010111111110000001011111110100000001111110011111100111111110011001111111111101110100000000100110010111111010111011111111111101011110000000101001100;
42 : 0000000100010110000000000100100000000000011111001111111000101001111111100111111000000000110111111111111110001011000000010011111111111111100010001111111011101110000000000110011111111111010000100000000001101000000000010011011011111111011100011111111110101011;
43 : 0000000100000100111111110010010000000001001000011111111000100001111111111111111111111110100010011111111011001011111111110011011000000000011110101111111010101111111111111100100111111111011110111111111111111000111111110101000011111111101011011111111111000001;
44 : 0000000000110001000000011110001011111110101111001111111100001111000000001101110011111101111100111111111111011111111111110010010011111110111101111111111001000110000000010101101000000000000000001111111110011000000000100101110011111111010011100000000010011011;
45 : 0000000110110111111111101100001000000000111001101111111011011000111111111000100000000000110000111111110110010010111111100101111111111111111110110000000000100101111111111100110111111110010011110000000000101011111111110001101011111110110001111111111110010011;
46 : 0000000000111100000000010000100000000010100010101111111000000100000000001011101111111110000001111111111101001101000000100010001100000000100010111111111010010110111111111010000011111110111011111111111101110111111111110111101000000000100001011111111011000111;
47 : 1111111100111110000000000010010000000000110010001111111010100011000000011100110011111111000001010000000000111001111111010100110011111111111111001111110110000101111111110111100111111111110101011111110100110001000000000010101111111110010111001111110111000110;
48 : 1111111111010110000000011010001011111111110100011111111011111010111111111101001000000000001010001111110100100001000000011011011111111111011110001111110101100101111111001111010100000000111001111111110000000110000000001111110100000000111100010000000010111111;
49 : 1111111110110111000000000010011000000000000101110000000010010110000000000110011000000000001001100000000101101001000000000110001100000000001011000000000101111001111111100001011100000001010100011111110111001101111111011101001011111011101100001111111111010110;
50 : 1111111001110101000000010000011011111111000000100000000001110111000000001010010111111111011110111111111001100110000000010110001000000000110110110000000100111100111111110001101100000000001111110000000001110111111111111100111011111110111110101111110001001010;
51 : 0000000001010100111111111011001011111101010110011111111011011001111111101011011011111111110000111111111111010001111111111111100000000000011001000000000100010100111111110111111011111111100111100000000001000000000000000011110111111110111000111111111111110110;
52 : 1111111101010101111111100110110111111110110010100000000000001111000000101010111011111111010001001111111101001010111111010111011000000000010100100000000011100000111111001000100000000000000111011111111011100011111111111110010000000010000100011111111111000001;
53 : 1111111110011001000000000000010100000000010001011111111010100101111111010111011100000001111010100000001010011001000000010011001011111111111100010000000001011101000000011101001011111101100101011111111101010101111111111000101111111110001101111111111101111111;
54 : 0000000001100000000000001100101000000000111101101111111010001111111111110100101100000000110000000000000001111101000000001000011000000001001100111111111011111111111111100111100111111110000001101111111001010000000000010100011011111111011011010000000011001000;
55 : 0000000010001101111111111000000011111111000100001111111101110001000000001100000100000000000110111111110101101111111111111111000000000000111011111111111101000100000000011110101111111110110100001111111101111111111111001100111000000010000110110000001000000000;
56 : 0000000011010011000000010010100011111111110011010000000101000101000000001111010111111111010011001111111011111110111111111110000111111111001111100000000000000011000000010111101000000001101110001111111010010000000000000000110011111110100010000000000011100011;
57 : 1111111100101100000000101100100011111110110111100000000100011101000000011011010111111111010000111111110110101101111111110110101011111111111010011111111011110011000000010111110100000000110011011111111101101010111111100110111100000010000010000000000011110001;
58 : 1111111110010001111111111000100100000001000110000000000101000011000000000111001000000000010011100000000010010100111111110100100111111110101101101111111110001110111111100110001100000000010010101111111000010110000000010011001000000001110100101111111111001110;
59 : 0000000110010100111111111110011000000000011001101111111101000000000000001000000000000001011011100000000011100010000000010010110111111111001010010000000000101111111111100101101100000001101001011111111100110010000000100111011000000001100110101111111010101010;
60 : 1111111111010111000000001000111011111111000001111111111111011111000000000111001111111111110100111111111011101101111111111100110100000001100010011111111000001011000000011101011011111111101010000000000011110010111111101111010000000000011001110000000111001101;
61 : 0000000110110111111111110110111100000001010000000000000010100001111111001000101000000000000100101111111110110101000000000100011011111101011001000000000010101010111111111001111111111111000110010000000000000101000000010101011011111101010000110000000101000100;
62 : 1111111100000100000000001111000000000000010100001111111110100000000000000100111011111111100010001111110110010000111111110111111100000000111000000000000000010010111111111111110011111111110000001111111110101110000000000000100111111111111001011111111111110110;
63 : 0000000011011010111111010010011011111110111000000000000000011101000000000111100011111111001011111111111101010111111111010110101000000000100010001111110111011010111111001000010100000000010001100000000110100001000000000000001011111111111111001111111011110101;
64 : 0000000010001111000000000100111011111111000101000000000111110100111111001000011011111111100011000000000000110010000000000000000011111101111101111111111101010000111111111011010011111110000011110000000101100010000000010011000000000001010110101111101110000111;
65 : 1111110100001101000000000101101100000001101001101111111011101100111111111110001111111111100110110000000101110111111111100110111100000001010100111111111001110011111111110101110011111111010010100000000101100101111111110101110111111101111010011111111101000110;
66 : 1111111010110011000000000111000111111101100110010000000010011100111111110101011011111111101101011111111010010110111111111101011011111111000110101111111101010111111111100100110100000001001000101111111010010101000000001001000111111111110110011111111111100010;
67 : 1111111000010001000000010010010100000000010100111111111011100001000000001001110000000001001000111111111000100100111111111011100000000010000011011111111010111111000000100001011000000000111110100000000010110111111111101100010011111101110110101111111110100101;
68 : 1111111110000111111111101111010011111100111101011111111111011000111111110101011011111111100010001111111011111001111111111010010011111111011011111111111011111111000000000011100000000001010011010000000000010000111111101011110100000000001000111111111100100110;
69 : 1111111110110010000000001100111011111111010001011111111101011001000000001011100011111110001010000000000111101110000000010110000111111110110100101111111111110000111111101101010011111111001011110000000100010110000000010011000100000000011101111111111110110010;
70 : 0000000101011001111111110000110011111110110011110000000011001000111111100111000111111111110010010000000101100110000000001001101111111110111000001111111110101100000000000010000011111110111001010000000000101111111111001111000111111111010100000000000010100100;
71 : 1111111011100110111111110011010011111111110100111111111110010101111111110001010100000000001110001111110111011111000000000000010111111110111000110000000111000010000000001000010100000000010011010000000001000001111111110101111011111110111010100000000010000001;
72 : 1111111001011010111111111010001111111111110011001111111101101100111111111010110100000001110101010000000111010110000000000010011000000001000110000000000110010001000000010110011000000000110011100000000011010001111111111011110111111110111000010000000111100000;
73 : 0000000100010100000000010001110111111111111110100000000010000000111111110000001011111111101110011111111110110011111111111110010011111111000010011111111011111000111111101001011011111111001011001111111111100001111111101110100000000000000101001111111101111010;
74 : 0000000100001010111111110100010100000000011010000000000101011001111111111001001011111111011100100000001001010100000000010000001011111110100000001111110011101101111111110111001111111111001001110000000000010100111111111011100000000001011110100000000011101100;
75 : 1111111111001100111111111001011111111111111110000000000011011001111111011011001000000001101011010000000001111011000000000000110011111111100110010000000111000110000000001000111000000000111110011111110011101010000000000101010111111111011111110000000111010101;
76 : 1111111111100010000000001000111100000001100001110000000111000100000000000011000000000000100010000000000010010111000000000100011100000000011110000000000101101100111111110010000000000000001010000000000001111010000000000110010111111110010110110000000000010110;
77 : 0000000001010010111111100100000100000000011001000000000100101010000000000011100000000001000010011111111100111010111111100010010000000000100001111111111010101110000000011100001000000000010011100000000011000111000000001011010111111111110100000000000101111000;
78 : 1111110100110110111111100101110011111111100000010000000011001010000000001111100111111111001100101111111111000101000000000100011011111110001000100000000000001110111111100001101000000001111001001111111110111010111111010001111011111111001010000000000110001100;
79 : 0000001000100011111111011011110011111110111011111111101000011000000000000111001000000000111110101111110011010110111111010001111100000000000110001111100111111000111111110111101000000000101100011111111010100111111111110100101000000000110011000000000100000000;
80 : 1111111101000001000000001100001011111101110010110000000010110001111111100111000100000000000000001111111110101101000000000001101011111101111110101111111101101010111111101110001000000100010000001111111010110010111111001110101011111111101010101111111111111101;
81 : 1111111011110000111111100011110000000000100110100000000011000001111111110100101000000000001000000000000101001101111111110001011100000000000001111111111110011000000000000001001011111110010011100000000000100100111111011001011000000001000111100000000011101111;
82 : 0000000000101110000000011111000011111110010111001111111010011011111111111011010000000000101011010000000000111101111111100001011000000000101001110000000100111111000000010111011111111111011101010000000010010111111111110110000000000000100000000000000010001100;
83 : 0000000001000101111111100110011000000010000110010000000001110001000000010001100111111111100111100000000001010000111111101100011100000000101111010000000010110010111111011100100000000001001110111111111010001000111111110101001000000001011101011111111101101100;
84 : 0000000000001101111111111100100011111110111011001111111101010000000000000011100111111110111010100000000000010101000000001111110011111101001011000000000101011100111111111111011011111111111111001111111110010111111111111000111011111110001110100000000001000000;
85 : 0000000010010111000000000011000000000001001001000000000100101110111111011000001011111111110100100000000100001001111111101000101111111111011100100000000110110011111111010110111111111110110110010000000100001101111111111010101011111111110100100000000111111001;
86 : 0000001000000101000000100000011111111111000101101111111101000110111111011001110011111111000011111111111001100101111111110101100011111110101010101111111001110001111111111000111100000000100110111111111000011000111111111000011000000000011010010000000010000010;
87 : 0000000010100000111111111010011000000000001110000000000000011011111111101110010000000011011011000000000000011001111111100111111100000000000110000000000111011100000000000001111111111111011101101111110110101101000000001110010011111101010001001111111111101111;
88 : 1111111010100111000000001000001100000000111001000000000010100011000000101001100111111111101111011111111100100001111111100111001111111111100111101111111110001111000000000011101100000000011101000000000110100011111111101010011011111111100010101111111110101111;
89 : 1111110110100101111111011100111111111110001001010000000111010010000000010010011000000010110001110000000011110001111111100111011000000000110101110000000110110010000000000100100011111110001001010000000001001000000000011100110100000001000011001111111111011101;
90 : 0000000000100010111111111101000011111101000000100000000000001110111111110110000000000000011010100000000101001110000000001010101100000001001000010000000011001101000000001001001011111101000110011111110100100101000000001000111100000000101000110000000000111110;
91 : 1111111010110001000000000000011000000001011100011111111010010100000000001000001111111111000110011111111111110011000000001000110111111101101010001111110101110001111111111001110111111111001001010000000000011110000000001111000111111111011000100000000100001100;
92 : 0000000001110101000000001000110011111101000001101111111101101111111111110101011011111111100101011111111011000110111111101101111011111111101100100000000011001000111111100110010011111101111100110000000010100000000000001011010011111110110101011111110111000100;
93 : 0000000001000010111111101001001111111111100000001111111101000111111111110101101011111111101110001111111101101111111111110001011100000000001000110000000001010101000000001101001000000000100110000000000100010111111111110011010111111111101011001111111111101101;
94 : 1111111000000101000000010000110011111110101111110000000001001000111111101011111000000001001010010000000100000110000000001111110011111110101011110000001000010011000000000000101000000000000011100000000000001011000000010101111011111101100000111111111110100111;
95 : 0000000010111101111111011011001000000000010000110000000000100111111111100100010011111101001100110000000010110110000000000101101011111111100111101111111011110000000000010111011100000000010110000000000010011100111111011110100100000001011010111111111100110100;
96 : 0000000000000111000000001000000100000000001001010000000101100000000000001100000100000000010000101111111101010001111111001101000000000000100010001111111001010101000000000100001111111110010110001111111011111100000000001000001111111110110011011111111101100101;
97 : 0000000100001110111111111000101000000000011100001111110110010011111111010010001000000000101011000000000001001111111111111001010011111111000101110000001000110011000000001000100100000000011001010000000011001100111111110000001000000000001101010000000001011101;
98 : 0000000001001100111111110111000100000000000100101111111101010100111111111101000100000000010011000000000000010111111111111011001011111111111110101111111110000101000000000100000111111111011010000000000010010100000000000110110111111111100011010000000100000001;
99 : 1111110111100110000000100001001000000001011101011111111101000100000000000100110111111111111011010000000010000101000000000101001100000000110010001111110110100011000000000111011011111110111000100000000011001110111111110110010011111110110000101111111000000001;
100 : 0000000011110101111111101101001011111111010101100000000000111010111111111101000100000000000111000000000000011011000000001111101011111111101100001111111100110110000000000100010111111011101111011111111010110010111111110110011011111111111101111111111001100110;
101 : 0000000101000111000000001101110111111111111001101111111010110011111111111010010111111101011001100000000101010000111111110000100111111111100000010000000010001010111111110010111011111111101101100000000100011000000000011000110011111110110001101111111011111000;
102 : 1111111111110110111111111111111100000001001000101111111111010001111111110111100011111111101110111111110111111010000000001111110000000000010100100000000101011111111111110010100000000000000111010000001001010111111111110111011011111110100110110000000011000110;
103 : 0000000001101111111111111100111111111100100101110000000100110101000000001000011000000001100111100000000100101011000000010111101011111110110110010000000110101000000000010101010100000000010100010000000011111101111111101110110000000001111100101111110111100000;
104 : 1111111110011101111111011110011100000000010100111111111111000101000000000101010011111111111001110000000010100001000000001010111011111110110111010000000100011011000000001110000000000010001011101111111101010111000000100001101000000000101111100000000010100111;
105 : 1111111111010010000000000001001011111110100001111111111011111011111111111110010000000001001101001111110100010110111111110110001011111101110011101111111001111111000000011011001000000000111111010000000101100011111111101010101111111110110100111111111100011100;
106 : 1111111010000010111111010001100111111110110000000000000011110010000000011001011111111111011100000000000011100011111111111111010111111110011010001111111011111101111111111010110100000000010100100000000101000001111111111010100100000000010010010000000010101010;
107 : 1111111010011100111111110010101011111111100110010000000001100001000000000101001111111110101101010000000011110111000000001011001011111110111010011111111110001000111111101011110100000000110100101111111010010100000000001000000011111111101101001111111110010000;
108 : 0000000010110110111111100110001000000000111001100000000001011000000000010001110000000000010101101111111111010111000000001101101000000001101000100000000011001100111111110011011000000000100011000000000100010001111111111011110000000000010001100000001000001111;
109 : 1111111110111101000000001101011111111111011011111111111100100101000000000101101111111111111111110000000000100001111111110110010111111111011011111111111101111110111111110011111100000000100011100000000100010011000000000010111000000000110011111111111111010110;
110 : 0000000000001000111111110100110011111101100001111111111000101110000000100111110011111111101010110000000111111101111111111100110111111110111111011111111111011110000000000101001000000000000100010000001100110001111111101111101000000000010100000000000001011101;
111 : 1111111111000011111111110111010111111111111101010000000101101001111111111101110111111111101011101111111100001011111110111001010000000001000110000000000001001110111111100100011111111101010111001111111011101111111111100000010100000010001001011111111111101011;
112 : 0000001000110010111111111110100111111101001110111111111111010001111111110110010100000010010000110000000011001111111111111110000011111110110000110000000011100100000000000111101011111110010111110000000101100111111111111101100011111111011000111111111101010100;
113 : 1111110111101111000000010101001100000001001101111111110110111011000000001001111111111111101010011111110110001100000000000100001011111110011111001111110111000000111111111011001000000000000010010000000000011000000000001000110100000001010000000000000000000011;
114 : 0000000011111010111111110100111100000000000000110000000001100011111111010110001111111101100000001111111010010000000000000011111100000000010110101111111110010101111111110101110111111111001111000000000000100100000000001110011111111111010001100000000110111001;
115 : 1111111100011101000000001010111000000000100011010000000001000101000000100011011011111110101000000000000001011000111111110000101000000000010100011111111100110001111111101000001100000000110001111111111101101101111111101001010011111110111111011111111101111101;
116 : 0000000000110101111111111000100011111111110100010000000000011010111111111101001100000000010001001111111101110000111111110000101011111110100110101111111111000110000000000000101100000000110100100000000001110100000000000111111100000000010111000000000000110111;
117 : 0000000100010001111111101000111111111110111001010000001010100101111111110010000000000001000100000000000100001010111111101000111011111111100010110000000001100100000000011110011100000000010011100000001001111101111111011100100000000000101101100000000010110110;
118 : 1111111111011110000000001110011111111111101001011111111011110010111111111111000011111111101011100000000000000101000000000100100011111111010001011111111110110110111111101100110111111110001110001111111110100001111111111011010111111110011111011111111110000100;
119 : 0000000111010011111111111100011011111111001110010000000011010100000000010110100011111110010000000000000000101100000000000011011111111101001010010000000110010101000000000101100100000000010010011111111101001000111111101010100000000000000111001111111100110101;
120 : 0000000011000111111111001101000011111110011010010000000001110100111111111110111011111110110110111111111100001110111111110010000011111111010000111111111011010010111111101110100100000001100010010000000011101010000000000101101100000000001100010000000011011001;
121 : 1111111010001001000000011100110011111111011111001111111110100001000000000010100100000000111110111111111100011000000000100011100111111101101101101111111110101001000000010100010011111110011011100000000100110100111111110110001100000001000001001111110110000010;
122 : 1111111111010000000000001000111000000001001101110000000000100100111111100110001011111111110101001111111111000110111111111001111000000001000011011111111110110001111111110111100111111111110001111111111101100100111111110011111011111101100110101111111110111010;
123 : 1111111011111100111111011111001011111111010111111111111100001010111111111100001100000000100011000000000000110111111111110001011011111110111100111111110100101110000000011000011000000000101000111111111111111100111111101010100111111101111011010000000001000110;
124 : 0000001001010010000000001001011111111011010110101111111010010100000000010010100000000010000010011111111111000010000000010000101000000000100111100000000111111001000000001111001111111111001101111111110111100001111111111000100100000000000101111111111110001001;
125 : 0000000110000010111111110111101111111111011100101111111100100010111111111001000100000000100011010000000010010010111111101000110111111111100000010000000000111111111111110000101111111110100001011111111100000111111111110000100111111110110000001111111110111000;
126 : 1111110111001000111111100101000000000000110110100000000100110111111111101011010011111111100011010000000011110111000000011000111011111100111100001111111111101101000000000100110111111111011011011111111000111010000000000000100100000000101010100000000011000101;
127 : 1111111101101100000000000010000111111111110001101111111010101101111111110011111111111111000011001111110110001100111111110100011000000000000100000000000000100100111111010100101011111111010100011111111101100100111111100100000111111111011111001111110111110011;
128 : 1111110101111011111111111100100111111111011001100000000011110101000000000001101111111101011011101111111110100110000000011101011011111111010001011111101111101101111111101000010111111110001011100000000001001010111111110100001011111110000011010000001001101010;
129 : 0000000000010101111111101110011011111111000111101111111000100111000000100011001100000000011010001111111110110011000000010011111000000000000101111111111101100110000000010100000100000000100100101111111101000111000000011001101111111101101011011111111110010010;
130 : 1111111011101010000000001101000111111111011011001111111101001010000000001111000000000001011110000000000011010010111111110000011000000000001000110000000010100110000000010010110111111111110101100000000000010011000000101000101011111111100010111111111100010111;
131 : 1111111100000011111111110110111000000001001000001111111101100001111111101101001111111111110110001111111011001011000000100101011111111110101110001111111100001010111111011001001100000000100001011111110010101110000000000011111100000001010111100000000111000000;
132 : 0000000000001011111111101111011000000001000101010000000001110001111111101001010011111110100011001111111001100111111111110001111000000000110110101111111011000011000000001101001100000001000010010000000010100110000000011001010011111111010000111111111000111001;
133 : 1111111111100101111111111101110111111111001110111111111111010110111111110101000000000000010110000000000001100110111111110101010011111111010000101111111011110100111111111010101111111111100010101111111111100100111111110110101111111111101101110000000000101000;
134 : 1111111110000000000000011100011111111111001101010000000110000001111111110010000100000000101010111111111001111011000000011001001011111111010101101111111010011110000000000010111011111111110110111111111001001011000000000111110100000000001110101111111011110000;
135 : 1111111011000111111111110000100100000000010111010000000010001001000000010011111000000000010001101111111100110101000000001001111100000000111000011111111011100101111111111111001011111110111101010000000000001000000000001101011111111110111000100000001000000110;
136 : 1111111110110001111111111111001000000000111100111111111110100001000000010001110100000000010010101111111110011110111111110101111100000001001011000000000001111111111111001110000111111111001101101111111110011101111111111010101000000000101011101111111100101001;
137 : 0000000010001100111111111010000111111101111001101111111110011111111111101011000000000000010110110000000001000100000000000101010000000000001110011111111111101111000000000110110011111101011110101111111011010111111111100010011100000001001000110000000101110011;
138 : 1111111000100111111111111110011000000000010111100000000000000011000000000001010100000001111101100000000110111101000000010111001100000000101011010000000100111001111111111000010000000000010100011111110111110000000000000110001111111111101011110000000011100100;
139 : 0000000000011011000000001001111000000001011111001111110101001111111111111010011000000001001110011111111111010001000000000001011011111111111010010000000100001111111111111100110111111111000000111111111011010000111111100011100100000001000000101111111101110100;
140 : 0000000000010001000000001110011111111110010100001111111101110110111111100000110011111100011110101111111101101000111111100001101011111110101111111111111111110011000000001011111000000000011001000000000100000001111111111111110111111111100111001111111110011001;
141 : 0000000001100100111111110111001000000010010001011111110110011010111111100110011000000000001101111111111001110100111111011011111111111111100011110000000011011000111111110111100000000000110101110000000000001001000000000111101000000000011100011111111110001011;
142 : 1111111111001001000000010001000100000001000000111111111101011001000000000110011011111111101011101111111100001001111111111000001100000001000110011111111011000110000000000110101011111111100011001111110110010010000000011000010100000000100010011111111011110100;
143 : 0000000000011001111111101010010111111110101001011111111011010000000000000110011111111111110100000000000000000000111111101110111100000000010100101111110011110010000000010110110111111110100101001111110111110101111111110011101100000000110100110000000100000100;
144 : 0000000101011011111111100011100011111111101011111111111111111000000000000100010111111110001101100000000011001111111111101010010100000000000010110000000111010111000000001111001100000000011101001111111011001111000000011100010111111111011111100000000010100001;
145 : 0000000011100110111111111101111000000001010010101111111011000101000000000100010111111110001100011111111111000001000000100001110111111111111011111111111110111010111111110111110000000000000011111111111000101111000000011010111100000000000110000000000111111100;
146 : 0000000010111100000000010101111011111110111101011111111011001100111111101000011000000001011100101111111111100010111111101011111000000000010100011111111011110011000000001100111000000000000111000000000000000001111111101111100111111111100010111111111101101111;
147 : 0000000011010101111111100001100011111110001010110000000001111101111111111010011000000001100000100000000010001110111111011110010111111110111010101111111101101000000000000111001011111111001111001111110100110100000000010000011011111111001111001111111101011001;
148 : 0000000100010011000000100101000100000001110100101111111111001101111111111111101111111110111110110000000000011010000000000000100011111111111111000000000110001010000000001010011111111111000010001111111010001111111111111101110000000000110011001111111110101111;
149 : 0000000101001101111111110000111011111110110100000000000010011000000000001101010100000000111000111111111101010110000000000110010111111101001001001111111100010011000000000011110011111110111110100000000000111000000000001111100011111110110110111111111111111100;
150 : 1111111100010011000000000010101111111110001010100000000100101001111111110111111100000001000111100000000000110100111111011000110011111111111000011111111001110011000000010010101011111110001111101111111110110001111111111011110000000011011111110000000101100000;
151 : 0000000001001101111111101111000011111110011111111111111010000111111111111010111111111110110100110000000001100001111111111110100011111111110100110000000100010000000000000000000111111101100111001111110111111011111111111101101000000011000011111111110110000011;
152 : 0000000101111110000000000001110011111111001100101111111110110111000000010111001000000001011000110000000010000100000000001000100011111110110010010000000010001111000000001000101100000000101111100000000001100110111111111011000100000000010010011111110111011110;
153 : 0000000000101100111111100011001100000001000001010000000100111001111111110000000011111110100111111111111101001001000000001111001011111111110101101111111011001100000000001100110011111111110100010000000011111000000000000000111111111111010000110000010001110000;
154 : 1111111100100000000000001100111100000000010101011111111011110011111111100101011000000001001001101111110110111001000000000000000111111111011110001111110111001110111111111100000011111111100100101111111101010011000000000110101000000000011100000000001001000111;
155 : 0000000000010010111111001010110011111111001111101111111110010010000000001011110011111111001011100000000000001011000000000000010011111110101100010000000010111011000000001110111111111110001000101111111011111001000000010001100111111110111001101111111011010011;
156 : 1111111001010011000000011000001100000010001110111111111010110100111111011101110100000001001010110000000011101000000000011100101011111110101000100000000010010100111111110010010000000000110001011111111111000000000000000111110100000000110100011111111100110111;
157 : 1111110111000100000000001110100111111110111100110000000100011100111111011011001000000001000100111111111100111000000000000010100100000001001011111111111101100101111111111101100111111111001001100000000110101110111111101100110111111100001010000000001001101000;
158 : 1111111100010111000000010001110000000001011101010000000010101001000000001110000100000000001010010000000000001001000000000110101000000000111100001111111010100010111111111000000000000000101001011111110111110111000000010000110111111110110001011111110011110111;
159 : 0000000010011010111111100111010011111111010010011111111011101001111111011101111111111111001100111111110101101001111111110000101111111111000011100000000010110010111111110010100000000000000101011111111111011110111111011101110011111101111010011111111101001010;
160 : 1111111111001110000000001010111000000000000001100000000001111011000000010000010111111111101100100000001010100101111111100101101111111110110001001111111000011001000000011010110111111101111110101111111100011011111111110000010111111111000001111111111110110111;
161 : 1111111100110110111111110011110100000001110101010000000100110010111111101001101111111110110011101111111101111100000000000101110111111111000010000000000001110100111111100110011011111111010010011111111011110000000000010101000000000011000010110000000111110000;
162 : 0000000000110001111111110010111011111111101011000000000111011100111111101101101111111111101110101111110111000001000000000111011011111110100000101111111111011001000000000001111011111110001010000000000100011001111111110000100011111111111011000000000100101100;
163 : 1111111100001010111111111111111111111111000000001111111010100100000000000010101111111111011110001111111100100101111111110011000111111101111011110000000001011111111111110110100011111110010110001111111101011111000000001101110111111101111100011111111100011010;
164 : 1111111110111111111111110011110011111101110011100000000011011000111111111011011100000000101110111111111011111011111111110011010100000001010001100000000101001100000000010011100111111111010101010000000011001100111111100011101011111110110001000000000100110000;
165 : 0000000010101011111111111011001100000000100000011111111101001100000000001000100000000010010010010000000000000000111111111000011100000000000011111111111011011010000000101100111100000001010110010000000000011010111111111001110011111111001100001111111111000011;
166 : 0000000110100011111111101100001011111101110000101111111100000010111111110111010011111110100010010000000110101110111111111000010100000000110101100000000011111000000000010100101000000100001011010000000011011011111111111011011011111111100010010000000010001001;
167 : 0000000101100111111111011010110111111111101011000000001010000001000000000111000000000000011111101111111111000110111111110100010100000000001010010000000010110000000000000011010011111110101001110000000110100011000000010001111100000001000101101111110111101110;
168 : 0000000100000101111111101001000011111111111010101111111011011011000000001111100011111110100101010000000001101101111111111001101000000000101100101111111101100001111111111011010000000000010001101111111100010010111111101001000111111110110101111111111100001111;
169 : 1111110111110101111111101001110111111111011110111111111100000100000000001010010100000001000110011111110111110001111111011110110000000001000000111111111101100001000000000110101111111100101001101111110000010101111111110001010011111110111001100000000100011011;
170 : 1111111011000001111111110100110000000000001010010000000101010001000000001001110011111110010111111111111101001100111111100001101000000000011011111111111001001010111111100100001100000000010000010000000011010001000000000011101111111111001011110000000000111110;
171 : 0000000000110000111111011110101111111110101010100000000111000111000000000100100000000000011010111111111111101010111111110100011000000001000001100000000000110010000000000000101111111101100111001111110001100110111111100010101000000000101101011111111011010011;
172 : 1111111101100001111111101100101111111111100001000000000100011110111111110111110011111111011000111111111110011010111111111111110000000001010100111111111010101110111111100111001000000000010101001111110011111100000000010011101100000001110110000000000010101110;
173 : 0000000100110111111111111011001100000001011101001111111011111110111111111111100011111111011010010000000000110001000000001110011100000000100101010000000101110110000000010111011011111111011010011111111010100011111111101010000011111111001101101111111001101000;
174 : 1111111110111010000000000000101011111111101111110000000001110001000000010100000011111110010001100000000100111111000000001011101111111111111101001111111100011111111111111101000011111111000011011111111111101010111111110111100111111110110111101111111101100000;
175 : 1111110111100011111111111001001011111111110000100000000001110110111111001111101100000001010000011111110111111000000000011000100100000000001100111111110001011011111111111111001011111110111100000000000101011000000000000000000000000000100111000000000001100010;
176 : 0000000110011100111111100000010111111111011101111111111111001100111111110111010100000000000001101111110101000100000000010001000011111111110000011111111110110111111111111001010111111111100111001111111000011000000000000110010011111111100001000000000100001101;
177 : 1111111110101111111111110011000011111111010111111111111011011110111111101111011100000001010100101111111110000011111111111001110011111110000010010000000001001101000000001001010111111111111011010000000011110001000000000101011000000000011010000000000001100111;
178 : 1111111001011011000000000100111100000000010010001111111111101001000000100010001000000000001000000000000001010010000000010100101011111111011110111111111111110111000000010000000111111111111110011111111111001100111111001110111000000000001110001111111111110001;
179 : 0000001001100000111111110110011011111101111100010000000000100001000000000011111100000000111110001111111010011101111111011100011100000010000111011111111001011111000000010000000011111111001111000000000100111101000000000110000000000000001001110000000011010111;
180 : 1111111100000100111111111101000011111111100000111111111001011100111111100100000100000001010011111111111100010010111111111110001111111111100110000000000011101000111111000001110000000000010000111111111101101001000000011000110100000000001100001111111001110011;
181 : 0000001000100000000000010001111111111101110010101111110101011100111111101111010111111110110101100000000101001100111111110011100011111111111110000000000110001110000000011111101000000001110001111111110100100000000000000010010011111111110010101111111001101011;
182 : 1111110110010010111111111101111111111110101100011111111111110100000000001011000000000000110111011111111101110100111111111010001111111111011010001111111010000110111111101101010000000000010101001111111111100001111111110111111011111101011111001111110101110110;
183 : 0000000000111010000000100001100011111110111011000000000100110101111111111001000111111101001110010000000001001001111111011000101000000000001111010000001001001010000000010110000011111100010110110000000011011010111111111000101011111110110100110000000001001111;
184 : 0000000010011111111111101011001011111110110001000000000100011000111111111101010100000010011000101111111000011111111111110011111111111110101101000000000010100001000000000011100000000000011101010000001001101000000000001011000100000000001100011111111001001011;
185 : 1111111100000010111111110100111000000001001110110000000011010101111111100110000011111110111101100000001010101001000000000101110011111111011000100000000001011001111111101110011100000000010101111111111100011010111111111011010011111111100101011111111101011111;
186 : 1111110001001010111111111010110000000000000011010000000011011001111111011010110000000001110000001111111000111011111111111110011011111111101000011111111010110000111111101101110111111111011010010000000010000101111111110111000111111111100111001111111011111100;
187 : 0000000001001100000000001010110111111110111100000000000100011100111111101111000111111110111000000000000011010001111111111100100111111111010000101111111000110011111111010010011111111111001000000000000001100010111111010000000100000010010011101111111010111011;
188 : 0000000001000010111111111011010111111110011000101111111000011011000000000111100011111110110110001111111100110110000000010001001000000000010000001111111010110101111111111111001011111111100111111111111001101001000000001101111011111111010111110000000001101011;
189 : 0000000011000001111111111000101000000000010111110000000001100011111111100001100011111110011111001111111000011111111111111101000011111111101010001111111101101111111111100101001100000001110111100000000101101110111111111111111100000000010000101111110111101100;
190 : 1111111110110011111111110100001100000000010010000000000101101000111111101011111100000000110001011111111011000100000000000101011011111100010010000000000011001111111111101100100111111101111100110000000101011101111111111011110111111110011111000000000000011010;
191 : 1111110100010110111111111110010011111111010111011111111110010100000000001100100011111111111001111111111101100111000000001100001011111100100111001111111000110101111111111010010011111110011010001111110101110000000000000110100000000000101101000000000010111001;
192 : 1111111110100100111111011100101000000000111000001111110010000000000000000111101000000000101111101111111010001110111111111111011011111111101000101111111011101111111111111110101000000001000110010000000000101111000000011011101011111100100010111111111001010100;
193 : 0000000010111001111111111101011011111111001101000000000110000111111111110000101011111110001101100000000001100000111111000110011111111101001010010000000010110011000000001101000000000001100010001111111111111111000000000101110000000000101000001111111101101011;
194 : 1111110011111111000000010011001111111101011100111111111000110001000000011000111011111110100111100000000101011000000000000010001100000000001100010000000010110110111111111100111111111111011101100000000001101010000000000100000000000000101000101111111011011101;
195 : 0000001011011000000000011000010111111111110100000000000001010001000000100000111100000000100000001111111000100001111111111010101100000000001101110000000100100011111111111011010011111110011001010000000010101100000000001111110011111111111101111111110110000110;
196 : 1111110110100110000000010110000011111110010000101111111100011011111111110001111100000000011000111111111010010011000000101001001100000001101000010000000000011010000000001000001100000000001010010000000011011101000000000111000111111101110100011111111110011111;
197 : 1111111010000111000000010011110011111110110001110000000001011010000000000110100011111111000110010000000011001100111111101110010111111111000111001111111111010011000000001110000011111111011110011111111110010110111111111101110111111110101011111111111110110010;
198 : 1111111111001110000000000001001100000000010100100000000011010110000000000010110011111111101010111111111110110110111111010010110100000001001001111111111010100110111111100100000111111110001010000000000000011011111111100000000111111110110100100000000011000110;
199 : 0000000010000011000000001101110011111110011001101111111101000110000000010110110000000001110111001111111000111010000000000010111000000000100011000000000111000101000000010001011000000001001011011111111010001100000000001011010100000000110110000000000100101001;
200 : 1111111100100110000000001101101011111111101001110000000011001010111111110111001111111110100000110000001000010001000000000100010111111111011001100000000011010011000000010000011011111111100010101111111111010001111111110111111011111110000111101111111111111011;
201 : 0000000111001011111111101001001111111110011011001111110110101101111111101111101100000000011100111111111111101010111111001000100011111111111011001111111111001000000000001101010111111111100101100000000001101101111111111101000111111110101000101111111010010101;
202 : 1111111110000111111111101001001111111110111101011111111110100011111111111000011011111111100001101111111001101010000000011011110000000000110010111111111001001111000000010110110111111110111000011111110111111110000000001110101100000001111000110000001001110001;
203 : 1111110111111100111111110000010111111101111011101111111101011100111111110110010000000001010001001111111011110101000000000011110100000001001001000000001010110100000000000110001100000001001000111111111110111001111111111110011100000001100000100000000010010111;
204 : 0000000010111001000000000110111111111111100001101111111101100110000000011000110000000001110101110000000011000000111111110001011000000000011110101111111100011010111111101111011100000001001000111111111111110101111111100100101111111111111100000000000000011001;
205 : 1111111111001011000000000110110011111110101110011111111111010100000000011000010100000000001010100000000000101110111111110001010000000000110000011111111000101001000000011001000000000001010000100000000010100011000000000001110011111110001100101111111001011010;
206 : 0000000000011011111111111101010000000000110000111111111010010001000000001110010111111110111001011111111101011111111111111000111000000000001100111111110101100101111111010110101111111111001100000000000101111110000000000011100000000000010101001111111100001111;
207 : 0000000010011000000000010001001011111111111110111111110110111000111111101001001100000000110100001111111001101110111111100111101011111111001001011111111101100010000000000001111111111010001111101111110010011101111111011011010111111111100000010000000000010101;
208 : 0000000110011111111111110000111000000000101011000000000000110011111111110001010100000000101011010000000000011011111111011111001100000001000100011111111100000010111110110110011111111111101110001111111010101101111111101001111100001000110100001111111110001101;
209 : 0000000100100010111111111000001100000000011110001111110110010110000000000110100100000001001111110000000001011011111111101010000111111111001011111111111001100111111111111001110011111111110010101111110101111110000000000111001111110101101000001111111010100011;
210 : 1111111101010100000000001000000100000001000110111111111111111011000000000110101111111111111111011111111111010011111111100100110011111110100000011111111111110011000000010111101111111111010001100000000111010011111111110010111111111110111111001111111010111001;
211 : 1111111011011001111111101001111000000000010111101111111101011101111111011011101000000000001110001111111001001011000000000100001100000000100011000000000110100101000000001010001000000000011000101111111110100110111111011100010011111111000111111111110100010111;
212 : 1111111001010111111111111100110000000000010100111111111111110011000000000111101100000000011111010000000000011110111111101100001111111111110010011111111110000111111111111101101000000001011101110000000010011001111111101101011111111111000010010000000001011010;
213 : 0000000011000110111111101111010111111111110111101111111111001011000000101000110111111111111101000000000100111011111111011101011000000000101000110000000001111010000000011101110100000001100101101111111010101000111111111110001000000000001010001111111011110100;
214 : 0000000001000101000000010000010111111110001101110000000000010100111111111101110000000000101010110000000100111101111111110100010111111101001111100000000011011101000000001110010000000000001111110000000010011111000000000001001111111111100001011111111101111001;
215 : 1111111111001000111111100100101100000001111111101111111100100100000000001000000011111110000010110000001000001010000000000010101000000001000011011111111001001110000000010100011000000011001011100000000100110001111111111000111100000000011011010000000000001110;
216 : 1111111000000010000000000000010000000001000111101111111100001010111111111000110011111111101000111111111101110000000000010010000111111100100110101111111011011110111111101010010000000000100111110000000001110101111111100000000100000000000000000000000111110100;
217 : 1111111101010000111111100011011011111110111001011111110101110000111111111110100000000000111110110000000110110101111111011010110000000000111111110000000100001111000000010010110111111111011001001111110101001100000000011100101011111110010111000000000001001011;
218 : 1111110101011100000000011001001011111100101100001111111101111001000000000110010011111111101101100000000010110000111111111010011011111110111011010000000001111100111111110110000011111110110111110000000111100110111111101101110100000000111000111111111100001010;
219 : 1111111010001010000000001111111100000000000001110000000011010101000000010001001011111101011101011111111100011101111111101100110011111111101001111111111010010001111111111101110011111101111011000000000011001000111111010000111111111110100100101111110010010011;
220 : 1111111111111101000000010100110000000000001010111111111011100010000000001111100111111110100100111111111110001001000000000110110111111111111110100000000011100001111111111000011100000001000100100000000111111100000000011101011011111111001101000000000000100100;
221 : 0000000001111000000000000001110000000010111110011111111110111111000000011111101111111111000100110000000001000001000000001010011111111110110010101111111101101100111111101010111000000001011110101111111100101011000000011000000011111111111110111111111111100001;
222 : 1111111101100110111111100111011000000010001000011111111110100111111111101000010111111101101001110000000011011010111111111100110011111110101111001111111001010000111111111000001100000010001100011111111111100010111111110010100000000001010011001111111010011000;
223 : 0000000000100001111110111001000111111111011101000000000011101111111111110111111000000000000111100000000000101000000000000011011111111111000101001111111001011101000000011001101000000000001010110000000010110110111111110110011111111111001110101111111011000000;
224 : 1111111011011111000000000001010111111111001001110000000011011000000000000000111111111101110100111111111010010000111111101011110011111110001000101111111000100100111111111111110111111110100011011111111101000101000000000001110111111110011010100000000010010000;
225 : 1111111100100101111111110100110111111111010001011111111010100000111111110000001100000000001101011111111010011010000000000101010000000010000000011111111001111001111111101111100100000000110111101111110101011001111111110100010100000001111000100000000101011000;
226 : 0000000010100000000000001101101100000000000001001111111101100000000000000100100011111111101010010000000001001001000000000111001011111111010001010000000000101100111111101100000000000000000111001111111111111111000000000010000100000000101000000000000001110100;
227 : 1111111011001100000000000011010100000000100011111111111010011101111111110110000111111111110110111111110111101111000000000101111111111111111001001111111011010101111111111011110100000000110000001111110011101011000000010011101011111101110110011111111100010000;
228 : 1111111010010100111111111110000111111100101111001111111101101110111111110101111100000000010100001111111101001101000000000100110111111110000011011111111110100111000000000000000011111111100011010000000100111010000000001011111011111101111001101111111110011010;
229 : 1111111100101001000000001110010111111111100110001111111101001101111111110110011011111101110111000000000011001011000000011001100011111101111000011111111110001100111111101011000000000001000011001111111010010111111111110110110111111111001010110000000101110110;
230 : 1111111101001001111111111111101000000001000101011111111110110011000000010110011100000000110001000000000000000000111111010101111000000000000011011111111011010110111111111001111111111111011010000000000000110001111111111101011111111110110101011111110011011111;
231 : 0000000000001101000000011100001111111110001000011111111110110000000000011000101100000001010001100000001010010011111111110111001100000000110010100000000011000100000000001101001100000000010100001111111000101101111111011110111000000001000001011111111010001100;
232 : 0000000101001110111111101011100011111101101101111111111110110111111111100011111011111111011101010000000100000110111111101110101100000010010101010000000000110110111111110000001111111111010001101111110111011011000000001001110100000010111100010000000010000011;
233 : 1111111010010101111111111001001000000000011100001111111110100000111111101001000011111110001001101111111111011110000000000101101000000011001100110000000001011010111111101000011111111111001001110000000101100101000000000001110100000000101111100000000100111011;
234 : 0000000001010111000000001010010100000000110111001111111100100001111111100110000011111111101011011111111101011001000000000001010111111111111000101111111110110010111111000110000100000000011010001111111110000000111111110100010000000001010011001111111000001010;
235 : 0000000100101101111111111000111100000000110111101111111001000010111111111111010011111111001010001111111001001010000000000111011111111111111000100000000011101001111111111011110100000000100001111111111101111110000000001001010000000000000100110000000001110010;
236 : 0000001100000010111111111101100111111110001111010000000101110100000000010111101100000000110110101111111111000011111111100110011111111111000111111111110111011100000000001011101100000000101011111111111111101001000000001100110100000000110111011111111100111001;
237 : 1111111110101000111111101000001000000000010001011111111100100001000000001010100100000000111001101111111111001000000000000110101111111111001010110000000011110110000000000110101000000000010010111111111001000101111111111111100111111110011001001111110110010001;
238 : 1111111111001101000000001011100111111111110000101111110110000000000000010000010111111110000000001111111110110011000000011101011000000000101110011111111011001010111111111111110100000001000111101111111011001011111111100001001000000000110001100000000011000011;
239 : 0000000000001000111111101110010100000000101110100000000010010100111111100111111000000000110110001111111101011000000000001110010111111111010000000000000111100000111111011010110011111110010100010000000001100011111111111011011111111111011000111111111111110000;
240 : 0000000010111100111111101001101011111111001101011111111011010100000000100010011000000000010000000000000010011110000000000101011111111111101011010000000111111000000000000101010100000001010010101111111101010001111111110011010011111101111010101111110101001010;
241 : 1111111101001011000000001111101111111110101011001111111111001101000000000101000011111111100001101111111011100110000000000000111011111110100010011111111101010001111111101000111111111110111100100000000000010010111111110110000100000010001010100000000011100101;
242 : 0000000000101000111111110111110111111111011111110000000101010010000000100010001111111111111111000000000011100100111111111100110011111110111011100000000011010011111111111111001000000000111000011111111111000101111111110110100111111110011110110000000010100000;
243 : 1111111001110000000000001100100000000000011010110000000000101101111111011001100000000001100000011111110100100111111111111010100111111110111011000000000101101111111111111100001100000000101111101111111111111100111111110000110111111101011010111111111111010001;
244 : 0000000000001001000000000110010111111110111100010000000000011001000000001010010011111111100001011111111101011100111111101111010100000000011101110000000100101100000000000111110011111111110001101111111110100000000000000001001100000000000100001111111111111010;
245 : 0000000000001100111111101001111000000000011110001111111111001111000000011000111100000000110111101111111101001110111111111000101100000000111110101111111101101000111111101100110011111111100100010000000010010101111111101111010100000010100010011111111111010001;
246 : 1111111100011111000000010111100100000001001101110000000100010111000000000000000000000000001001001111111111101001111111110001010111111110010111011111111111010011111111110000010111111111111000001111111001111110000000000011010111111111111110000000000110010011;
247 : 1111111111110100111111110000000111111111110010110000000000000110111111100101110111111110000000110000000011000100000000001111111111111111110110111111111000011110111111110010001000000001000110111111111111010011111111111001000111111110110000100000000010101111;
248 : 1111111010111101111111101011010111111111011011110000000000010010000000000011111011111111100000101111111111110000111111101100000100000000000010001111110100000101000000000111100011111110101101101111111101001111111111010111100011111111111011100000000000110111;
249 : 1111111101000101000000010000100111111111111101000000000001110000111111111111010111111111001101010000000011010111000000001010110011111110011001000000000000111100111111100111110111111111101000110000000111110111111111110010101011111101100110100000000011110000;
250 : 0000000001011000000000000010010011111111100010111111111011100101000000001101011111111110000111001111111111010111000000010011111111111110110011001111111010010001111111110110001100000001001101001111111000000000000000000110101111111101010100000000000111010011;
251 : 1111111111011000111111101100001011111111100111101111110110001011000000010110111111111110110000000000000101101101000000000011000011111111111100111111111100101110000000011000000100000000010010111111111110010111111111110011011100000000110100101111111000101000;
252 : 1111111111100110000000101111110111111111000001001111111101101011111111111100110100000000100100101111111100100000111110111110101100000000001101101111111100000110111111010000000011111111100110110000000000101111000000000111111111111110001000101111111100100010;
253 : 0000000011100010111111001111100111111111100000010000000010011101000000001001110011111110011011010000000011010110111111111011001000000000101011110000000101111100000000100010111111111110010000001111111000111011111111111101100011111110110101011111110010111111;
254 : 1111110111100110000000000110010100000001111000110000000100111000000000000101000111111110110100010000000110001110111111110000100000000000110101000000000100010001111111100110110111111110110111110000000110110000111111111000111011111111101000011111111110001011;
255 : 0000000001000111000000010101010100000000101011110000000001010101000000000100110111111101011001111111111010111111000000100000110100000000101011111111111011111111111111111000010011111101010001110000000001000101000000001010100011111110110011001111111001000101;
256 : 1111111111111011111111101111111011111110101011000000000001111100000000000000100111111110110011010000000011000101111111101101100111111110100011001111110101000111111111111111000011111110110101110000000001111111111111101001100000000000100000100000000000010011;
257 : 0000000101101101111111101100110111111101101101110000000010110011111111101110011011111111001011010000000110110000000000000010011011111111010101010000000010010110111111110000100000000000011101110000001100101110000000000001010111111101110110000000000001001001;
258 : 0000000010110010111111110011101111111101111101111111111111100101000000001011001000000000001111001111111000110100000000000010000111111110111101101111110110110010111111100111001111111100101111100000000100011111000000100011001100000001011011010000000011100100;
259 : 0000000111011111111111100101111011111111011001101111111001111101111111111001101100000000010011010000001001110011111111110011101011111101101110110000000001111011000000000001000011111101111000110000000001000011111111100100110000000000110001010000000011000111;
260 : 1111111111011100000000000000011111111111001100011111111100010100000000000010111111111111100100001111111101101101111111101011101100000001100101100000000001110110000000000001111111111111100001011111111111101011000000000100111000000001011011100000000011100100;
261 : 0000000000101111000000000001101100000000010000001111111111100011111111101111010100000000001001011111111111101100111111111010011100000000011100001111111111010100111111111101000000000000001011110000000001011000000000001100101111111111100011100000000000111011;
262 : 1111111111111101000000000110001011111100001110101111111000001101111111111111000000000000111101101111111110010010111111110100010111111111011001100000000001111010000000010011111111111101101100010000000000110101000000000000010000000000101010011111111110001011;
263 : 0000000010011111111111111101110000000000001000111111111110011010000000100001101011111111011100001111111100101101000000000111101100000000000010100000000010001011111111010100110000000000100111100000000100010010111111110101100111111110101111010000000010000010;
264 : 1111111100010000000000011001110000000000000011101111111000100000000000000010000100000000011100111111110010110110000000001010010111111111111111010000000010110001111111111110000111111111100000101111111010110111111111110110001011111101110001110000000010000111;
265 : 0000000111010011000000010100011011111110110000010000000001101100111111010101010100000000101001000000000110101001111111111011100100000000101101101111111101010101000000000110001011111100100101010000000000101110000000011100101000000001000110010000000110000000;
266 : 1111111001000100000000011000110011111101010001010000000001011011111111110111001100000000101011011111111001011010111111111001101011111111100010101111111100000100111111111010111011111111011001010000000100101000111111111100010000000000011100110000000001111010;
267 : 1111110100001100000000001011001100000000001111000000000101010010000000001010111011111110100011011111111110101110000000010101100111111111000000000000001001001111000000000101011100000000010100100000000001101001111111111010101000000000110011110000000010001100;
268 : 1111111011011000111111110011001100000001001110001111111100011110111111101110010000000001111000110000000010001111111111110110100111111110011001111111111111001110111111111111110000000000111100011111111110111011000000010100001011111111111010001111111000010001;
269 : 0000001000000110000000000101001111111101011101000000000001010001111111011100110000000000011010010000000011000100111111111111111011111111101011010000000110011010111111111110011111111111010001100000000000110001000000001110111011111101000111001111111111111100;
270 : 0000000001110100111111111000111000000001000101111111111101100100000000010110011011111111100010001111111100000001111111111101001100000000011110000000000101010111000000001000010111111111000101011111110111101110000000010011010000000001100000000000000101110100;
271 : 1111111001010010111111111010010000000000110000101111111110101000111111100110011111111110111010110000000001111111111111011100101000000000000100100000000000001011111111111101010111111111110001101111110000011101111111111111001111111110001010011111111111001010;
272 : 1111111100101100000000101100110011111111101110011111111100010111111111100111111011111110011001011111111100100111000000001001100111111111001100010000000001111101111111010100000011111101110000101111111011110010111111101011111000000001100101011111111100100010;
273 : 0000000010101110000000001100101011111111111010101111111111010011111111110101111111111111100110111111111000101100000000000011100100000000010010000000000111110101111111110110000111111110100011001111111011001101000000001110101111111110011100101111111111010011;
274 : 1111111011101100000000000011000111111110101101111111111111011100111111111101000100000001010011010000000011001101111111101100000111111110100010100000000101010100000000011111111111111111111000001111111101110100000000011010010111111111011110010000000000001011;
275 : 1111111110101010000000000011111100000001000101101111111001000001111111011011100111111110111001000000001000101001000000010101100111111111010010110000000000010100111111101001100100000000011001110000000100100010111111111101101111111110001000010000000101100100;
276 : 1111111111101000000000000011101100000000001100000000000000001000111111110011100111111111000011110000000001110001111111111010001100000001001011010000000101010100111111111111111000000000010001011111111110101100000000001011110111111111111001110000000000101100;
277 : 1111111101001001111111100001000011111110100101101111110100110100000000001000100000000000001110101111111011011010111111110000110011111111111110011111111010100000000000000011111111111110110001100000000001101100111111111101011011111111101111101111111110100010;
278 : 0000000001101110111111100110001111111110111110111111111001010000000000010111111100000000110101011111111010000011111111111011110100000000100110000000000100111101000000001000110111111101111010101111111100111010111111110011000011111101010100001111111011111001;
279 : 1111111110110000000000001100001111111110100111011111111101010110111111010100110111111111010011111111111010001110111111101110000100000000011010101111111001010111111111101001010011111111011101000000000010010100111111110011000111111111011010010000000011011100;
280 : 1111111011001111111111001110000100000000100011101111111110111010111111111010011111111111011011011111111111000110111111101111011000000001001110011111111110100001000000010010011011111110110011001111111101011110000000100000000011111101000100000000000001010011;
281 : 1111111110001111111111011100001100000000011100000000000101111100000000001010000011111111011111001111111111101110111111110011001000000000000001001111111010110110000000001111100111111110000001101111111100011101000000010010110000000000000011010000000110010110;
282 : 1111110111000011000000001001110000000000000100101111111110111000111111110101010100000000100111000000000010010100111111011001110100000000100010001111111101111000111111101100011011111110101011111111111100011101000000000011100011111111001110111111111111100100;
283 : 1111111110011111000000010000110100000001011011101111111010101011000000000001011100000001010100011111111010100110000000001011111111111111111110010000000001101101111111111000011011111111010010001111111000110001111111110101110000000000001110001111111100110110;
284 : 0000000011101101000000100010001000000000110110100000000000100110111111111011001011111111011001100000000100100011111111111001100100000000100111100000000011010101000000100110100100000000100100011111111110111011000000011000101011111110111000110000000001000100;
285 : 1111111110101000000000010001101011111111000010111111111110101100111111101000011011111111111000100000000010011010000000000010000100000000010011001111111000010110000000000110110100000001010111001111111000010001000000001000010100000001010100010000000000001011;
286 : 0000000010110101000000001000101000000001001001011111111000100010000000001010100111111100111110001111111101010101111111111101000011111111011101000000000100010100111111100100100111111110111100101111111100101010111111100110110011111111010001011111111111000010;
287 : 1111111110100001000000000100001111111110000111010000000010001010000000000100000000000001111001110000000001011010111111101010100100000000000011111111111111100100111111011010110111111111011100001111111100111010000000000110100111111111011101011111110110111111;
288 : 1111111011110100000000010001111111111101100010011111111111000111000000101001111111111111101110011111111101011100111111111101101000000000110111000000000100001111111111101010010111111110011010111111111110011101111111111000111011111110111001000000000010011110;
289 : 0000000000111110111111101011011111111111010111101111110111110111111111111000111011111111000010111111110111011010111111010100111011111111110110000000000111001001111111101101000111111110001110010000000000000000000000011001001111111111101100011111111011110000;
290 : 0000000001100000111111111111010011111111010110011111111110011010111111011100110111111111101000100000000000110001111111111011000011111101001000111111111111110101000000011010000000000000100011111111111000100110111111100011001011111111101001010000000001111101;
291 : 1111111111010101000000000111110111111111010100010000000010101111000000011001100111111110010010011111111111011100111111100000111000000001001010101111111110111101000000100100111011111110110100001111111010001000111111110110100000000001001101000000000001110000;
292 : 1111111110100011111111111001000000000000100010010000000000011010111111111111000000000001011011000000000001111111000000001011110100000000101110111111110000111111111111010111101000000000110101010000000100001101000000000100100000000000000001100000000111111101;
293 : 0000000001100110111111100110010100000000011101001111111010011010000000010000101100000001010010111111110111110011000000010110100000000001101111110000000000000011000000010100101100000000100101111111111101001001000000000101011000000000001000000000000000110001;
294 : 0000000010011001111111111110100100000010110000111111110101101110111111111000010011111111010010111111111101001000111111001000100011111111000000111111110110101100000000001011100011111111101001110000001001101100111110110111100100000000010111101111100011110011;
295 : 0000000101111110111111101101001100000001001101100000000111100110000000001001110011111111111011010000000010101100111111110001001011111111100100101111111010110110111111100011001000000000011010101111111100000110000000010101010000000000010001111111111111001010;
296 : 0000000100011011111111111100000011111111011100110000000101010000111111111101101011111101110101100000000010111110000000000110010011111111101010101111111000011001111111101011110000000000010111101111111100011100111111101111110111111111011011000000000011100001;
297 : 0000000001100000000000011001010111111111101000100000000001101101111111111011100111111111110000010000000011100011000000000001001000000001010100000000000110101101000000010101000011111111000100010000000011111001000000001101100000000001010001000000000001101101;
298 : 1111111110011011000000001011010011111111011111110000000000011100000000011001100111111111001001011111111010101101111111101100100100000001000001101111111001101000000000000100111011111111101000011111110111100000111111000110000100000000011010100000000000000100;
299 : 0000000100001001111111110011100000000000100111101111111100101100111111101101110011111110010100110000000101010001000000001110100011111111101110100000000011010010111111111110111111111111100001010000000110001001000000010110000011111110101111110000000010111011;
300 : 1111111111100010000000000011010000000001101011110000000001101111000000000000101000000000110100001111111000010011111111101011011111111111000011101111111110110000111111100011110011111111111100011111111101010001000000001011010111111101111111100000000011111100;
301 : 0000000001110100111111111101000000000010001011101111111100001101000000001110110011111111100110001111111111011000000000000110010111111111110011110000001000101111000000001111110000000000010001000000000010001001111111111010011000000000000100100000000111000000;
302 : 1111110110100101000000001001110011111110111111001111111110101111111111111101111000000000001000101111111110010110000000011010001100000001010111011111111100111100000000011001101111111110111010111111111111111011111111111010001100000000000010101111111100101000;
303 : 1111111010100010000000000000010011111101100000101111111110101110111111111001101111111100111010111111111001001101111111111010011000000001011111001111111010010111000000001101111011111111111001100000000000101100111111111100001111111111000011110000000010100011;
304 : 0000000011100000111111111011010011111110100101011111111111100001111111111000001111111110100111010000000001101111111111111110100000000000100110111111111011100011111111101100100000000000100001101111111100111011111111101100010111111111011000011111111111011111;
305 : 1111111011011111000000000011101000000000111100111111111100101000000000001011011011111111010111101111111101100010111111101111011111111111111010100000000111010101000000000110110011111110001000101111110101110110111111101111010000000010000110010000000100101101;
306 : 1111110101010011000000000111010111111110001001001111111010101101111111110110101011111110110000100000000010111100000000001010000000000000100110110000000000111001111111110110011000000000000110011111111101001010111111110000101000000000001000001111111001111000;
307 : 1111111111100000000000001000111000000000111100001111111110001000111111011100010011111111101111001111111100011111000000011000010000000001110110111111111111011010000000001011101011111111111000001111111100000000111111100011000100000001000111110000000011101001;
308 : 1111111000010100000000010101011100000000001100111111111110011101000000011000000000000001000010101111111000111010000000000101110000000001111100000000000011100011000000100001111100000000010011011111111111010010000000000001110100000000110000100000000110010010;
309 : 0000000010010101000000011011110011111110110100111111111001010000111111010000000000000000010011110000000010010000111111110100111100000010001110110000000100111111111111111011111100000001001100000000010100001111111110111100010011111101000100001111110010111010;
310 : 1111110111011010111111100010101100000000110001001111111011001001000000010111101111111111110001011111110110101011000000001010111000000000011100011111111101100111111111111000110100000001110111001111110111000110111111101111011011111111011001101111111101110001;
311 : 0000000001000010111111101111011100000000001111011111111111100010000000010000110011111110001111111111111111000111000000100000101000000001000001000000000000010101000000000001100011111101101111011111111010101011111111110100010011111111111001011111111101100100;
312 : 1111111110101011111111101110001100000000001110101111111101111001000000001011110100000000101010100000000010010001111111111100111111111111101011101111111111000000000000000000111000000000110011111111110100100011000000001100001111111111011101010000000000110100;
313 : 1111111101011011111111110010000000000000011010111111111111011010111111110000100011111110101010111111111000101111111111100011011000000000110101110000000000000101000000001011101000000000000101000000000001011101000000000001011111111110001111010000000011001000;
314 : 1111111101000010111111111000010111111110010100011111111100111100000000010010010100000001000001101111111111011000111111101000000111111111110000001111111111111001111111101100011000000001010011100000000001001001111111111100000111111111101000000000000010101111;
315 : 1111111101010101111111111111100011111111011010101111111110101101111111110000101111111111101001100000000110010010000000010000011011111111001111111111111111001100000000100001100011111111100000101111110110110101111111101100101100000000010001010000000111100001;
316 : 0000000010101111000000001110011100000010011001101111111101110010111111011100110100000000001001000000000001000101111111110100001011111111111010111111111110010101111111010000001011111111010100010000000010011101000000001000111111111111010100010000000101001011;
317 : 0000000101111010111111101001010111111110110100111111111100110011000000000100110000000000011010110000000000011001111111100101110111111110111110011111111011101010111111101101100111111111100110111111111110010011111111111110101100000000110100100000000001111010;
318 : 1111111110111111111111110111011011111110110100010000000010111000111111111001000011111111111001011111111101010100111111100111010011111111110100101111111111111000111111100010011111111110000001101111111011101011000000000100010111111110101110101111111101010010;
319 : 0000000011010100111111101001100100000000010011111111111001111001111111110110010000000000110011010000001001101011111111111110000011111101001111110000000100011110111111111001010111111111100111010000000010110110111111101010011111111111011010011111110010010010;
320 : 1111111110010011111111111100001011111110100001001111111111100000111111100100100000000000001110110000000001100100000000011101110111111110100111011111111110110100000000011100101000000000001010011111111111101000111111111000010011111111001010000000000101010011;
321 : 1111111011111010000000001000000011111111111011110000000011110111000000000100001111111111111100010000000011101100111111101111111111111111011111100000000011110010000000000010010100000000011000011111111101110111111111101111011011111110111010100000000100001100;
322 : 0000000100100101111111110001001111111110010111011111111011100100111111100111001000000000100010000000000100110010111111111011110111111101011010010000000001000000000000000100000100000000111000101111111110000011111111101001011100000000101100001111111011100010;
323 : 1111111111101110000000000001011100000000100011110000000011110100111111100010011011111111101001001111111101100000111111100010101011111110110111110000001010110000111111111011000011111110111011101111111000001000000000001101101100000001011010101111111011001010;
324 : 0000000001000010111111101111010100000000010011000000001001111001111111110110100111111101111011111111111010000110000000101100010011111111110111000000000000100011111111011010011000000000001011111111111101101000111111110000111111111111110011110000000010101001;
325 : 0000000011000110111111110011110111111111101010010000000001010100000000010101010111111111010101001111111110100001000000001111001011111110110100010000000000010110000000001101001111111111011111111111111101100111111111111000010011111111011101001111111110101110;
326 : 0000000001101111111111111110110111111111110100101111111001010101000000000000100100000001001011010000000011101001000000010110000111111111010011111111111101101010111111100101100100000001011100001111111100000111000000001110010111111110110001100000000110011111;
327 : 1111111110100110111111110100000100000000110010010000001010101111000000000101111000000000011111000000000100100000000000110001010011111110111111110000000000101011000000001100101100000000101111110000001011011010000000010110000000000000110100100000000000010001;
328 : 1111110110100001000000011000111000000000000100001111111001000000000000011101011000000001000100001111111010000010111111111011010000000000110111000000000011000101000000010110100111111111001110011111111101000101111111010110100000000001100100001111111111001000;
329 : 0000000000010011111111010010110011111101010001110000001000100000111111111000110111111111001110111111110010011111111111111111001011111101111100011111111100010011111111110100010011111110100110001111101010101100000000001100101011111111000000010000000001010111;
330 : 0000000110000000000000001110001011111111010011111111111001110011111111110000110111111111100100001111111100100011111111100001101111111110101110011111110110100011000000000000101111111011101000001111111111111100111111111010100011111101010111101111111101011011;
331 : 1111111011100111111111110001010000000001000100011111110111000000111111110001001100000000111000101111110001011010000000011101111000000001000100110000000001111100111111100101110100000000110101111111111111010001111111101001011111111101010110000000000101100100;
332 : 1111111110101010111111110100000100000000110001100000000101101111111111111111100100000001010101001111111011010001111111110011010000000000110100000000000010111001000000000110101000000001111001101111111110100001111111110110101111111110100101110000000000011110;
333 : 1111110101000010111111100001011111111101100111100000000001101001111111111011110111111100011011010000000011000100000000001111110000000001110010010000000010001111111111111010000111111111111101001111111110110001111111110011001100000001000100011111111010100111;
334 : 0000000110110111111111110001100000000000000011101111111011001110000000001001110111111101010110011111111101000101000000001100100100000000010110100000000010100100111111101111111000000000111111011111111010111111000000010000000011111111101010111111111010111101;
335 : 1111111101111001111111010101001011111110111000100000000101100101111111001101100011111110000101001111111000010011111111001100101011111111011100000000001001010010000000001001000100000001100100111111101001100100111111101011110011111111001010001111111110000001;
336 : 0000000010100011111111011100110011111101111110100000000100100101111111100010101111111101100010001111111111110101111111110010111111111111110110101111101111100111000000010110100111111111000010101111111110101111111111111101100100000000011100001111111000001011;
337 : 0000000000001001111111101010000111111111111100101111111011000110000000000110011000000000010100111111111010000110000000010011101011111101010100001111111101010101000000001111111011111111000011000000000011011110000000100001100100000000101010011111111110100000;
338 : 1111110111111001111111110010110100000001100100111111111010111111000000001001101100000001110010101111111010000000000000001011100100000001111011111111111011111100000000000110001111111110000111101111110111100001111111110101010111111101101110101111111100110001;
339 : 0000000011000111000000001000110000000001000101001111111111110010000000010110011000000000101101101111111100010000111111110001101111111111101101101111111101110111000000001011111111111111100111001111111111111111000000001101001011111111000000110000000010011011;
340 : 0000000001111110000000001001111100000000100001101111111111100000000000011001111111111101111010001111111011110111111111101110100100000000100010111111111111100101111111111011011111111111100000111111111111010010111111111100111100000000101000011111111101001100;
341 : 1111110101100001111111111011100100000010001100111111110110111011000000001010110000000000001001100000000011010101111111111101110011111111111001101111111000010110111111101000011111111111111110100000000001001111111111101111010000000000101101011111111101110011;
342 : 0000000110101111111111000111111100000001001110110000000011110001111111111010101011111111011110100000000100110001000000010010001111111111000000001111111011001000111111111001010100000001001100011111111101111110111111110011100111111110001001001111111011100000;
343 : 1111111100011110111111100111111100000001110110111111111010110101000000001000100011111110100001001111111101110110111111111111100111111110000100101111111110001001000000011000000000000001000011010000001000000100111111000011011100000001001000001111110000010010;
344 : 0000000000101101111111100101011100000001000000001111110111100010111111111001000100000001010000100000000010010110111111110011101111111111101111010000000011001000111111100000011000000001001010010000000010010111000000001001100111111111010010111111111100011111;
345 : 1111111000111110111111111111001011111111111001010000000001110000000000011111011000000000001101101111111011100101111111111001010111111101111100100000000110110101111111010100111111111110011011000000001001001010111110110100001000000000001000111111111000011011;
346 : 1111111111100011111111110101000100000000010000000000000100011111111111011100010111111110011110101111111010110100000000001111011011111110100001000000000100010111111111111010001011111110110100011111111110111110111111100111101100000000010101000000000101000100;
347 : 0000000000110101000000001111011111111111101111101111110111000010111111111100101000000000000100100000000001001111000000001011111111111101111111101111111100000101111111111000101011111111100001101111111011000111111111101101010000000000100010001111111111101010;
348 : 1111111100101101000000000110111111111111111011010000000011111101000000011011111111111111011111010000000001001101111111011000001111111110111001010000000100100010111111111011010011111111010110101111111110011110000000000001110011111111111101111111111100000100;
349 : 0000000001110011111111100011001100000000011011000000000001110001111111111110000011111111111000111111111111111100000000000100100111111110010101110000000100010010000000000011100000000000001010011111110111010001000000011001111100000001110010101111111110110010;
350 : 1111111010100100111111100100000000000001011111101111111101110011111111101011000111111111100000011111111010011100111111100011101011111111010100000000000001000111000000000000000000000000010001100000000000011101000000001110001000000000111100000000000111000000;
351 : 0000001000001011000000001100100000000001001100110000000000010100000000001100001011111111011010010000000001011011111111101011000000000001101001001111111101000100111111111010101011111110011100110000000010010010000000000010010011111111101110111111111111101001;
352 : 1111111110110101111111100100110000000001111001100000000001011000000000001100011011111111110011111111111001101000000000001000111111111111000110000000000001000101111111111111100000000000101000111111110010111101111111010011000100000001001100001111110010011010;
353 : 1111111100100100000000001111101100000000101001111111111011011000111111110001110011111111001001001111111101110100111111111001100011111111000000111111111110011011111111111011110111111101101011110000000000111000000000001111001111111110000000000000000010011110;
354 : 0000000011100100111111111011101011111111111110101111111101010100000000001100010011111111101110010000000000110001000000000110111000000001000100110000000001111111111111110100011011111111010001110000000010010011000000001101000111111111000101100000000000011100;
355 : 1111111001000011000000010010101000000000111110101111111011111001000000000001101111111110010110011111111000111010000000001000101111111110100001111111111110010101111111111011000011111110111011101111111101011110111111111110010011111101111111001111111011000111;
356 : 1111111111000010000000010000110011111111101111111111111010001011111111011111001000000001001101011111111011110010000000001011011000000000011010111111101001100000000000000000110000000000011001110000000000100011000000000110100011111111110110101111111111101000;
357 : 1111111100000100111111100111001111111111011000101111110101010000111111111011100100000001111001101111111000101111111111110111000000000000001000010000000011001111000000011000000011111101111100110000000011100011000000010010001000000000000000000000000001100101;
358 : 1111111111100001000000001000010000000000111101100000000100010100111111111110011011111111111111000000000011100000000000001110001100000000010011110000000010100000000000010001110111111110011110110000000100011111111111110111110011111111011011110000000001011011;
359 : 1111111011011000000000000010110100000000011101101111111011111011111111101100001100000000001000011111111011100100000000001111110011111111110000011111111001011101000000010010010011111101100110011111111101110111111111110001100011111101000010101111111110011111;
360 : 0000000101011101111111110001110000000000011110100000000100010000000000000110101011111110000111101111111111010010111111101010010000000000101000110000000000101011000000011000110111111110000111101111111101000100111111110111011111111111100101000000000011111110;
361 : 1111111000000100111111010001111011111110100101010000000011111010111111011100111000000001100100001111111001001100000000001110101111111011110111001111111111101101000000011101000011111111110001101111111100001111000000001010111111111111011011100000000011101111;
362 : 0000000001000011000000011111101011111110101100001111110111001001111111110110111111111110000000110000000000100010000000010100001100000000000001000000000001101111111111111111001000000010010000000000000100111010000000010010001100000001000010000000000111011101;
363 : 0000001001001011000000001010100011111110111001010000000001001111111111101000100100000001000001011111111001111001000000000110110100000000011000010000000010111101000000000010100000000000111110111111111111010111111111110011101111111101110100101111110110100110;
364 : 0000000101001011000000010110110011111101101111101111111010110111000000000100111111111101100011011111111011111011111111111110111011111110111001100000001010110001111111110111000111111101100111100000010011010110111111110011110111111101111011010000000011111000;
365 : 1111111110000000000000000001101011111111010111011111111111011101000000001100000100000000010100001111111000010010000000001000011011111110100001100000000001110101000000001000101011111110111101100000000000000110111111100101110000000001000011100000000011101000;
366 : 0000000100011000000000000011110011111111110101110000000110101010000000000100011011111111001010110000000010000001000000000110100111111101110000010000000101000101111111101100011011111101111010100000000011000001000000001001000100000000001111111111111111111101;
367 : 0000000110101111000000001000000011111111110000100000000011010000111111101111010011111111001010000000000111011000111111110010000000000010010011111111111100100010111111100011000000000000111100000000000100001101000000010110001100000000100101100000000010000100;
368 : 1111110110010010000000000001101000000000000010011111111111001011000000000010000011111111100110011111111011110010111111111001011100000001011011101111111100110101000000011011011111111111101111011111111000011110000000010111111100000001000011111111111111000111;
369 : 1111111100011010000000001100101000000000011000011111110100010001111111110000110000000000111111100000000010100101111111101001011011111101011100111111111111101010111111010100110000000000011101011111110011000110111111010110100011111110101000011111111101011011;
370 : 1111111101100110000000010010111100000000000011101111111101010000111111111011111011111111000011001111111010110110000000010011001111111110110000001111111100011011111111101001101111111111100111110000000011111101000000010101101111111111001010011111111001011010;
371 : 0000000100110011111111100110100111111111111101001111111101110000111111110000100011111111010011101111111100101100000000011110010011111101001000011111110110100011000000000000000100000001000001001111111100111111111111011110111011111111000100101111111100111011;
372 : 1111111110100011000000000100111111111111110111011111111110011001111111110100101000000000100000100000000000001000111111111011101100000000100110011111111100101010111111111000100000000000000001110000000010010001111111111110000111111111111011111111111111001101;
373 : 1111111001000111111111101100111011111101101000001111111100100010111111110010100100000000011100111111111001111110000000100101111100000001011100100000000011000001111111111111100011111111100100011111111110110010000000001100001111111111010011111111111000000010;
374 : 1111111010110000111111111011011011111110111110101111111010000110111111101110110100000001000101101111111010011010000000000001100000000000010000001111111110000011111111110100100111111111011111001111111110111011111111111011111000000000111011010000000001010110;
375 : 1111110110011101000000000111100011111101110111011111111100011011000000011110101011111111010000100000000111000011111111011101000000000000100110111111111110000000111111101110001011111111100010011111111000001000111111011001111000000000001000100000000010101100;
376 : 0000000000011110000000000010000000000000111100010000000110110111000000000100011111111111100010001111111010111110000000000000100011111110110101000000000110010101000000000100100111111111011001010000000111100111000000010001110111111110101100011111111011100111;
377 : 1111111110000001000000010011100011111110011011011111110101000001000000001010011100000001000111000000000010101001000000000100000100000000010011100000000001010100000000000011001011111110111101110000000010001000111111110101101000000001011001111111111111101100;
