DEPTH = 1;
WIDTH = 256;
ADDRESS_RADIX = DEC;
DATA_RADIX = BIN;
CONTENT
BEGIN
0 : 0000000000000000000000000000000000000000000000000000000000000000000000000000000000000000000000001111111011110100111111011011111111111111100110011111111101110010000000000101001111111111111010110000001011110101000000100011111100000000001111101111111111000010;
END;
